{
  "version": "1.0",
  "truncation": null,
  "padding": null,
  "added_tokens": [
    {
      "id": 0,
      "content": "[UNK]",
      "single_word": false,
      "lstrip": false,
      "rstrip": false,
      "normalized": false,
      "special": true
    },
    {
      "id": 1,
      "content": "[PAD]",
      "single_word": false,
      "lstrip": false,
      "rstrip": false,
      "normalized": false,
      "special": true
    },
    {
      "id": 2,
      "content": "[BOS]",
      "single_word": false,
      "lstrip": false,
      "rstrip": false,
      "normalized": false,
      "special": true
    },
    {
      "id": 3,
      "content": "[EOS]",
      "single_word": false,
      "lstrip": false,
      "rstrip": false,
      "normalized": false,
      "special": true
    }
  ],
  "normalizer": null,
  "pre_tokenizer": {
    "type": "Whitespace"
  },
  "post_processor": null,
  "decoder": null,
  "model": {
    "type": "BPE",
    "dropout": null,
    "unk_token": "[UNK]",
    "continuing_subword_prefix": null,
    "end_of_word_suffix": null,
    "fuse_unk": false,
    "byte_fallback": false,
    "ignore_merges": false,
    "vocab": {
      "[UNK]": 0,
      "[PAD]": 1,
      "[BOS]": 2,
      "[EOS]": 3,
      "!": 4,
      "\"": 5,
      "#": 6,
      "$": 7,
      "%": 8,
      "&": 9,
      "'": 10,
      "(": 11,
      ")": 12,
      "+": 13,
      ",": 14,
      "-": 15,
      ".": 16,
      "/": 17,
      "0": 18,
      "1": 19,
      "2": 20,
      "3": 21,
      "4": 22,
      "5": 23,
      "6": 24,
      "7": 25,
      "8": 26,
      "9": 27,
      ":": 28,
      ";": 29,
      ">": 30,
      "?": 31,
      "@": 32,
      "A": 33,
      "B": 34,
      "C": 35,
      "D": 36,
      "E": 37,
      "F": 38,
      "G": 39,
      "H": 40,
      "I": 41,
      "J": 42,
      "K": 43,
      "L": 44,
      "M": 45,
      "N": 46,
      "O": 47,
      "P": 48,
      "Q": 49,
      "R": 50,
      "S": 51,
      "T": 52,
      "U": 53,
      "V": 54,
      "W": 55,
      "X": 56,
      "Y": 57,
      "Z": 58,
      "a": 59,
      "b": 60,
      "c": 61,
      "d": 62,
      "e": 63,
      "f": 64,
      "g": 65,
      "h": 66,
      "i": 67,
      "j": 68,
      "k": 69,
      "l": 70,
      "m": 71,
      "n": 72,
      "o": 73,
      "p": 74,
      "q": 75,
      "r": 76,
      "s": 77,
      "t": 78,
      "u": 79,
      "v": 80,
      "w": 81,
      "x": 82,
      "y": 83,
      "z": 84,
      "£": 85,
      "â": 86,
      "—": 87,
      "’": 88,
      "an": 89,
      "in": 90,
      "er": 91,
      "ar": 92,
      "th": 93,
      "or": 94,
      "es": 95,
      "on": 96,
      "al": 97,
      "to": 98,
      "re": 99,
      "the": 100,
      "of": 101,
      "at": 102,
      "ing": 103,
      "et": 104,
      "en": 105,
      "is": 106,
      "it": 107,
      "ck": 108,
      "om": 109,
      "id": 110,
      "up": 111,
      "ank": 112,
      "ed": 113,
      "ay": 114,
      "ro": 115,
      "ic": 116,
      "he": 117,
      "lo": 118,
      "le": 119,
      "ew": 120,
      "and": 121,
      "st": 122,
      "Bank": 123,
      "ll": 124,
      "ut": 125,
      "ark": 126,
      "gu": 127,
      "tock": 128,
      "erg": 129,
      "arket": 130,
      "PO": 131,
      "IPO": 132,
      "lat": 133,
      "ion": 134,
      "for": 135,
      "are": 136,
      "all": 137,
      "as": 138,
      "ec": 139,
      "rup": 140,
      "rupt": 141,
      "ruptc": 142,
      "ur": 143,
      "iv": 144,
      "ear": 145,
      "gulat": 146,
      "ruptcy": 147,
      "The": 148,
      "US": 149,
      "ig": 150,
      "ings": 151,
      "Am": 152,
      "ce": 153,
      "St": 154,
      "com": 155,
      "nings": 156,
      "est": 157,
      "off": 158,
      "end": 159,
      "har": 160,
      "tocks": 161,
      "ers": 162,
      "Bankruptcy": 163,
      "In": 164,
      "ill": 165,
      "reet": 166,
      "Street": 167,
      "Jo": 168,
      "Wall": 169,
      "market": 170,
      "Re": 171,
      "regulat": 172,
      "ivid": 173,
      "ividend": 174,
      "pan": 175,
      "New": 176,
      "un": 177,
      "ct": 178,
      "ch": 179,
      "ad": 180,
      "por": 181,
      "new": 182,
      "ial": 183,
      "ter": 184,
      "lay": 185,
      "ors": 186,
      "ma": 187,
      "earnings": 188,
      "ow": 189,
      "oo": 190,
      "merg": 191,
      "compan": 192,
      "ve": 193,
      "du": 194,
      "offs": 195,
      "la": 196,
      "il": 197,
      "dividend": 198,
      "ge": 199,
      "pp": 200,
      "port": 201,
      "Market": 202,
      "ith": 203,
      "hares": 204,
      "anc": 205,
      "Fed": 206,
      "go": 207,
      "ork": 208,
      "with": 209,
      "inanc": 210,
      "inancial": 211,
      "ld": 212,
      "layoffs": 213,
      "se": 214,
      "ir": 215,
      "ent": 216,
      "ris": 217,
      "its": 218,
      "eric": 219,
      "im": 220,
      "Americ": 221,
      "ate": 222,
      "Stocks": 223,
      "ver": 224,
      "ke": 225,
      "no": 226,
      "company": 227,
      "report": 228,
      "App": 229,
      "pro": 230,
      "ies": 231,
      "ance": 232,
      "Apple": 233,
      "Mor": 234,
      "America": 235,
      "duct": 236,
      "York": 237,
      "alth": 238,
      "igh": 239,
      "Ch": 240,
      "str": 241,
      "pr": 242,
      "urn": 243,
      "gan": 244,
      "00": 245,
      "Markets": 246,
      "Morgan": 247,
      "vest": 248,
      "bank": 249,
      "ect": 250,
      "ex": 251,
      "eral": 252,
      "ns": 253,
      "shares": 254,
      "oft": 255,
      "Journ": 256,
      "Journal": 257,
      "be": 258,
      "DA": 259,
      "soft": 260,
      "stocks": 261,
      "Financial": 262,
      "We": 263,
      "op": 264,
      "af": 265,
      "ly": 266,
      "Mic": 267,
      "us": 268,
      "Micro": 269,
      "ok": 270,
      "Microsoft": 271,
      "merge": 272,
      "Goo": 273,
      "Joh": 274,
      "co": 275,
      "Federal": 276,
      "vestors": 277,
      "look": 278,
      "say": 279,
      "gle": 280,
      "product": 281,
      "Google": 282,
      "ra": 283,
      "Ex": 284,
      "Regulat": 285,
      "nson": 286,
      "Johnson": 287,
      "Res": 288,
      "SE": 289,
      "JP": 290,
      "qu": 291,
      "ong": 292,
      "regulation": 293,
      "idance": 294,
      "lls": 295,
      "ase": 296,
      "ta": 297,
      "ory": 298,
      "out": 299,
      "roup": 300,
      "econ": 301,
      "JPMorgan": 302,
      "care": 303,
      "ess": 304,
      "Far": 305,
      "Up": 306,
      "Wells": 307,
      "Fargo": 308,
      "after": 309,
      "own": 310,
      "day": 311,
      "fir": 312,
      "illion": 313,
      "stock": 314,
      "ergy": 315,
      "unc": 316,
      "arnings": 317,
      "ob": 318,
      "Cit": 319,
      "bal": 320,
      "de": 321,
      "Earnings": 322,
      "down": 323,
      "lobal": 324,
      "Amid": 325,
      "erve": 326,
      "mp": 327,
      "says": 328,
      "but": 329,
      "Reserve": 330,
      "clo": 331,
      "guidance": 332,
      "igroup": 333,
      "Citigroup": 334,
      "cor": 335,
      "we": 336,
      "year": 337,
      "Chin": 338,
      "te": 339,
      "health": 340,
      "po": 341,
      "high": 342,
      "anno": 343,
      "chan": 344,
      "has": 345,
      "bankruptcy": 346,
      "ment": 347,
      "loom": 348,
      "econom": 349,
      "Stock": 350,
      "sh": 351,
      "China": 352,
      "old": 353,
      "fr": 354,
      "strong": 355,
      "li": 356,
      "reports": 357,
      "big": 358,
      "cre": 359,
      "will": 360,
      "Dow": 361,
      "rad": 362,
      "ones": 363,
      "low": 364,
      "man": 365,
      "rise": 366,
      "berg": 367,
      "open": 368,
      "ech": 369,
      "Upd": 370,
      "Jones": 371,
      "con": 372,
      "mor": 373,
      "from": 374,
      "ia": 375,
      "billion": 376,
      "fall": 377,
      "iz": 378,
      "uters": 379,
      "change": 380,
      "Reuters": 381,
      "announc": 382,
      "ha": 383,
      "NA": 384,
      "ek": 385,
      "Co": 386,
      "ru": 387,
      "that": 388,
      "merger": 389,
      "ector": 390,
      "Merg": 391,
      "Tim": 392,
      "regulators": 393,
      "mo": 394,
      "ity": 395,
      "harma": 396,
      "lack": 397,
      "Times": 398,
      "GE": 399,
      "Global": 400,
      "Ro": 401,
      "investors": 402,
      "Com": 403,
      "EO": 404,
      "markets": 405,
      "pric": 406,
      "He": 407,
      "NY": 408,
      "ive": 409,
      "Black": 410,
      "wor": 411,
      "Exchange": 412,
      "Rock": 413,
      "Health": 414,
      "BlackRock": 415,
      "ab": 416,
      "age": 417,
      "su": 418,
      "rop": 419,
      "announces": 420,
      "Merger": 421,
      "Mer": 422,
      "share": 423,
      "more": 424,
      "SDA": 425,
      "energy": 426,
      "Update": 427,
      "NASDA": 428,
      "NASDAQ": 429,
      "Shares": 430,
      "arter": 431,
      "ales": 432,
      "companies": 433,
      "hit": 434,
      "financial": 435,
      "tech": 436,
      "one": 437,
      "close": 438,
      "Merck": 439,
      "En": 440,
      "iness": 441,
      "usiness": 442,
      "Tes": 443,
      "tel": 444,
      "Tesla": 445,
      "Is": 446,
      "sur": 447,
      "vid": 448,
      "ical": 449,
      "news": 450,
      "quarter": 451,
      "Bloom": 452,
      "over": 453,
      "pl": 454,
      "pect": 455,
      "Intel": 456,
      "Bloomberg": 457,
      "BP": 458,
      "ast": 459,
      "job": 460,
      "ions": 461,
      "dustr": 462,
      "Investors": 463,
      "firm": 464,
      "ile": 465,
      "regulatory": 466,
      "Dividend": 467,
      "Nvid": 468,
      "gen": 469,
      "Nvidia": 470,
      "Business": 471,
      "ach": 472,
      "ant": 473,
      "int": 474,
      "row": 475,
      "force": 476,
      "have": 477,
      "uy": 478,
      "ard": 479,
      "mak": 480,
      "TE": 481,
      "lt": 482,
      "pharma": 483,
      "incre": 484,
      "by": 485,
      "der": 486,
      "sector": 487,
      "um": 488,
      "economy": 489,
      "world": 490,
      "De": 491,
      "dit": 492,
      "oil": 493,
      "sl": 494,
      "yers": 495,
      "ates": 496,
      "DATE": 497,
      "Pr": 498,
      "PDATE": 499,
      "UPDATE": 500,
      "ain": 501,
      "than": 502,
      "rais": 503,
      "first": 504,
      "Sales": 505,
      "form": 506,
      "Pf": 507,
      "ure": 508,
      "yst": 509,
      "ther": 510,
      "deal": 511,
      "izer": 512,
      "Pfizer": 513,
      "..": 514,
      "Bris": 515,
      "ac": 516,
      "tol": 517,
      "Salesforce": 518,
      "Bristol": 519,
      "Gold": 520,
      "az": 521,
      "jor": 522,
      "ss": 523,
      "trad": 524,
      "ight": 525,
      "products": 526,
      "Regulatory": 527,
      "outlook": 528,
      "mplo": 529,
      "cord": 530,
      "Goldman": 531,
      "FT": 532,
      "Myers": 533,
      "ds": 534,
      "fil": 535,
      "Amgen": 536,
      "Amaz": 537,
      "major": 538,
      "expect": 539,
      "Amazon": 540,
      "utical": 541,
      "ceutical": 542,
      "illy": 543,
      "NYSE": 544,
      "mploy": 545,
      "Lilly": 546,
      "Pay": 547,
      "ou": 548,
      "increase": 549,
      "ist": 550,
      "ide": 551,
      "Inc": 552,
      "Chase": 553,
      "ake": 554,
      "ep": 555,
      "latest": 556,
      "100": 557,
      "Mob": 558,
      "act": 559,
      "employ": 560,
      "porate": 561,
      "Eli": 562,
      "ak": 563,
      "buy": 564,
      "grow": 565,
      "lin": 566,
      "our": 567,
      "not": 568,
      "higher": 569,
      "am": 570,
      "boo": 571,
      "pit": 572,
      "hell": 573,
      "week": 574,
      "Pro": 575,
      "gest": 576,
      "xon": 577,
      "News": 578,
      "ood": 579,
      "corporate": 580,
      "Energy": 581,
      "Mobil": 582,
      "xonMobil": 583,
      "Shell": 584,
      "ees": 585,
      "gover": 586,
      "ExxonMobil": 587,
      "govern": 588,
      "Fr": 589,
      "Ph": 590,
      "Sach": 591,
      "get": 592,
      "ot": 593,
      "ome": 594,
      "make": 595,
      "dividends": 596,
      "Sachs": 597,
      "CEO": 598,
      "gain": 599,
      "ron": 600,
      "art": 601,
      "rev": 602,
      "Un": 603,
      "ba": 604,
      "cut": 605,
      "ef": 606,
      "isco": 607,
      "prof": 608,
      "about": 609,
      "FTSE": 610,
      "government": 611,
      "cl": 612,
      "ind": 613,
      "regulations": 614,
      "res": 615,
      "ation": 616,
      "economic": 617,
      "bo": 618,
      "set": 619,
      "500": 620,
      "Cisco": 621,
      "Pal": 622,
      "wh": 623,
      "iday": 624,
      "ley": 625,
      "IPOs": 626,
      "PayPal": 627,
      "cle": 628,
      "ire": 629,
      "ud": 630,
      "been": 631,
      "prices": 632,
      "dustrial": 633,
      "Product": 634,
      "Friday": 635,
      "BC": 636,
      "Th": 637,
      "ip": 638,
      "lar": 639,
      "les": 640,
      "employees": 641,
      "growth": 642,
      "Lay": 643,
      "gi": 644,
      "good": 645,
      "ug": 646,
      "work": 647,
      "trading": 648,
      "Layoffs": 649,
      "giant": 650,
      "Trad": 651,
      "WS": 652,
      "bon": 653,
      "do": 654,
      "global": 655,
      "anley": 656,
      "espit": 657,
      "ited": 658,
      "loss": 659,
      "Stanley": 660,
      "verage": 661,
      "take": 662,
      "clos": 663,
      "price": 664,
      "pharmaceutical": 665,
      "espite": 666,
      "Mo": 667,
      "Ris": 668,
      "ace": 669,
      "ble": 670,
      "em": 671,
      "ting": 672,
      "ash": 673,
      "SEC": 674,
      "WSJ": 675,
      "na": 676,
      "ol": 677,
      "per": 678,
      "record": 679,
      "fut": 680,
      "esday": 681,
      "expected": 682,
      "United": 683,
      "Con": 684,
      "Ora": 685,
      "gt": 686,
      "early": 687,
      "jobs": 688,
      "Oracle": 689,
      "ber": 690,
      "their": 691,
      "ruptcies": 692,
      "ime": 693,
      "tak": 694,
      "pos": 695,
      "Se": 696,
      "dec": 697,
      "mon": 698,
      "inter": 699,
      "und": 700,
      "Prof": 701,
      "filing": 702,
      "EC": 703,
      "app": 704,
      "ges": 705,
      "rates": 706,
      "erta": 707,
      "lect": 708,
      "reported": 709,
      "Eu": 710,
      "may": 711,
      "Report": 712,
      "rope": 713,
      "plan": 714,
      "Europe": 715,
      "ER": 716,
      "ES": 717,
      "drop": 718,
      "shar": 719,
      "some": 720,
      "alyst": 721,
      "top": 722,
      "issu": 723,
      "head": 724,
      "ures": 725,
      "uncerta": 726,
      "surge": 727,
      "interest": 728,
      "':": 729,
      "12": 730,
      "Gu": 731,
      "cer": 732,
      "cent": 733,
      "card": 734,
      "if": 735,
      "other": 736,
      "tr": 737,
      "time": 738,
      "ump": 739,
      "reform": 740,
      "Industrial": 741,
      "Compan": 742,
      "line": 743,
      "sharp": 744,
      "alysts": 745,
      "sc": 746,
      "way": 747,
      "this": 748,
      "ices": 749,
      "Bankruptcies": 750,
      "Regulators": 751,
      "healthcare": 752,
      "Healthcare": 753,
      "Dividends": 754,
      "Rise": 755,
      "Cor": 756,
      "Mar": 757,
      "Top": 758,
      "ath": 759,
      "cris": 760,
      "lic": 761,
      "rate": 762,
      "tle": 763,
      "Ind": 764,
      "lower": 765,
      "inty": 766,
      "derna": 767,
      "...": 768,
      "crisis": 769,
      "%,": 770,
      "Average": 771,
      "Face": 772,
      "few": 773,
      "io": 774,
      "ric": 775,
      "ser": 776,
      "sid": 777,
      "secon": 778,
      "ated": 779,
      "sts": 780,
      "ext": 781,
      "credit": 782,
      "bonds": 783,
      "ECB": 784,
      "uncertainty": 785,
      "second": 786,
      "bn": 787,
      "bas": 788,
      "eer": 789,
      "sday": 790,
      "ics": 791,
      "ural": 792,
      "ursday": 793,
      "Regulations": 794,
      "raise": 795,
      "back": 796,
      "Thursday": 797,
      "Moderna": 798,
      "athon": 799,
      "CES": 800,
      "cus": 801,
      "hold": 802,
      "put": 803,
      "vo": 804,
      "wa": 805,
      "analysts": 806,
      "into": 807,
      "atural": 808,
      "ally": 809,
      "sell": 810,
      "key": 811,
      "000": 812,
      "maker": 813,
      "ystem": 814,
      "book": 815,
      "index": 816,
      "Guidance": 817,
      "Marathon": 818,
      "Che": 819,
      "IM": 820,
      "hits": 821,
      "iew": 822,
      "oco": 823,
      "sa": 824,
      "als": 825,
      "ish": 826,
      "opens": 827,
      "EOG": 828,
      "dustry": 829,
      "ourc": 830,
      "largest": 831,
      "39": 832,
      "Cre": 833,
      "Econ": 834,
      "Mon": 835,
      "Sector": 836,
      "me": 837,
      "ul": 838,
      "vron": 839,
      "ary": 840,
      "aring": 841,
      "ata": 842,
      "atch": 843,
      "regulate": 844,
      "American": 845,
      "workers": 846,
      "future": 847,
      "Conoco": 848,
      "Chevron": 849,
      "Credit": 850,
      "Econom": 851,
      ".,": 852,
      "20": 853,
      "It": 854,
      "Natural": 855,
      "fin": 856,
      "ix": 857,
      "pen": 858,
      "uld": 859,
      "anad": 860,
      "ign": 861,
      "unch": 862,
      "Resourc": 863,
      "rules": 864,
      "aster": 865,
      "profit": 866,
      "Traders": 867,
      "Facebook": 868,
      "Resources": 869,
      "Canad": 870,
      "bs": 871,
      "despite": 872,
      "ne": 873,
      "ue": 874,
      "ult": 875,
      "invest": 876,
      "incl": 877,
      "still": 878,
      "ecut": 879,
      "urt": 880,
      "see": 881,
      "Phone": 882,
      "appro": 883,
      "ERC": 884,
      "Topics": 885,
      "sider": 886,
      "Are": 887,
      "HS": 888,
      "Pion": 889,
      "Page": 890,
      "bt": 891,
      "iPhone": 892,
      "lit": 893,
      "pe": 894,
      "pre": 895,
      "wo": 896,
      "ink": 897,
      "industry": 898,
      "iss": 899,
      "log": 900,
      "utsc": 901,
      "could": 902,
      "weak": 903,
      "Comm": 904,
      "plun": 905,
      "Deutsc": 906,
      "boost": 907,
      "Monday": 908,
      "includ": 909,
      "HSBC": 910,
      "Pioneer": 911,
      "Deutsche": 912,
      "10": 913,
      "13": 914,
      "AP": 915,
      "FERC": 916,
      "IB": 917,
      "Mark": 918,
      "Tech": 919,
      "Wh": 920,
      "million": 921,
      "thers": 922,
      "ree": 923,
      "ities": 924,
      "unce": 925,
      "ims": 926,
      "nolog": 927,
      "quot": 928,
      "concer": 929,
      "rug": 930,
      "ips": 931,
      "Profits": 932,
      "lectric": 933,
      "Corp": 934,
      "little": 935,
      "including": 936,
      ";/": 937,
      "Care": 938,
      "Master": 939,
      "Pharma": 940,
      "Wed": 941,
      "bet": 942,
      "ca": 943,
      "fo": 944,
      "fed": 945,
      "nesday": 946,
      "pay": 947,
      "so": 948,
      "sla": 949,
      "ations": 950,
      "isa": 951,
      "ision": 952,
      "stake": 953,
      "ction": 954,
      "banks": 955,
      "announce": 956,
      "most": 957,
      "move": 958,
      "based": 959,
      "Wednesday": 960,
      "Be": 961,
      "For": 962,
      "Oil": 963,
      "Visa": 964,
      "data": 965,
      "drug": 966,
      "ie": 967,
      "ief": 968,
      "rest": 969,
      "ating": 970,
      "road": 971,
      "lead": 972,
      "States": 973,
      "looms": 974,
      "Updated": 975,
      "ould": 976,
      "cuts": 977,
      "sharply": 978,
      "Canada": 979,
      "IBM": 980,
      "What": 981,
      "nology": 982,
      "11": 983,
      "Gile": 984,
      "Ja": 985,
      "No": 986,
      "Open": 987,
      "Sch": 988,
      "ap": 989,
      "ged": 990,
      "long": 991,
      "others": 992,
      "rit": 993,
      "riv": 994,
      "ale": 995,
      "reat": 996,
      "Banks": 997,
      "llar": 998,
      "lation": 999,
      "ecur": 1000,
      "illips": 1001,
      "launch": 1002,
      "ility": 1003,
      "Regulation": 1004,
      "izon": 1005,
      "Enron": 1006,
      "makes": 1007,
      "raises": 1008,
      "accord": 1009,
      "action": 1010,
      "Phillips": 1011,
      "clim": 1012,
      "dollar": 1013,
      "losses": 1014,
      "closes": 1015,
      "takes": 1016,
      "Companies": 1017,
      "Economist": 1018,
      "federal": 1019,
      "Gilead": 1020,
      "according": 1021,
      "Big": 1022,
      "EP": 1023,
      "Hold": 1024,
      "amp": 1025,
      "equ": 1026,
      "ff": 1027,
      "mer": 1028,
      "ning": 1029,
      "num": 1030,
      "ren": 1031,
      "Jobs": 1032,
      "biggest": 1033,
      "slight": 1034,
      "lines": 1035,
      "ugg": 1036,
      "ugh": 1037,
      "issue": 1038,
      "holders": 1039,
      "Commiss": 1040,
      "plunge": 1041,
      "Mastercard": 1042,
      "slam": 1043,
      "Japan": 1044,
      ";...": 1045,
      "Tu": 1046,
      "bit": 1047,
      "ling": 1048,
      "lum": 1049,
      "now": 1050,
      "next": 1051,
      "system": 1052,
      "ivate": 1053,
      "under": 1054,
      "chief": 1055,
      "laid": 1056,
      "seek": 1057,
      "press": 1058,
      "looking": 1059,
      "tax": 1060,
      "polic": 1061,
      "cont": 1062,
      "firms": 1063,
      "review": 1064,
      "UnitedHealth": 1065,
      "month": 1066,
      "Index": 1067,
      "ious": 1068,
      "ecutive": 1069,
      "slightly": 1070,
      "Commission": 1071,
      ";...&": 1072,
      "Despite": 1073,
      "Nas": 1074,
      "NBC": 1075,
      "Ver": 1076,
      "aq": 1077,
      "call": 1078,
      "cess": 1079,
      "sp": 1080,
      "sales": 1081,
      "sign": 1082,
      "ub": 1083,
      "rele": 1084,
      "main": 1085,
      "ird": 1086,
      "private": 1087,
      "years": 1088,
      "berger": 1089,
      "quarterly": 1090,
      "slide": 1091,
      "serv": 1092,
      "ConocoPhillips": 1093,
      "Schlum": 1094,
      "ecurities": 1095,
      "climb": 1096,
      "number": 1097,
      "Tuesday": 1098,
      "policy": 1099,
      "Schlumberger": 1100,
      "%.": 1101,
      "80": 1102,
      "EX": 1103,
      "GM": 1104,
      "aims": 1105,
      "cur": 1106,
      "dire": 1107,
      "daq": 1108,
      "ev": 1109,
      "gin": 1110,
      "jump": 1111,
      "med": 1112,
      "mix": 1113,
      "net": 1114,
      "ty": 1115,
      "two": 1116,
      "ere": 1117,
      "ore": 1118,
      "round": 1119,
      "coming": 1120,
      "last": 1121,
      "going": 1122,
      "ople": 1123,
      "ruct": 1124,
      "shareholders": 1125,
      "oney": 1126,
      "profits": 1127,
      "posit": 1128,
      "plans": 1129,
      "investment": 1130,
      "Pharmaceutical": 1131,
      "caut": 1132,
      "Nasdaq": 1133,
      "Verizon": 1134,
      "14": 1135,
      "17": 1136,
      "An": 1137,
      "Dec": 1138,
      "Drop": 1139,
      "Fut": 1140,
      "Out": 1141,
      "Sh": 1142,
      "aw": 1143,
      "again": 1144,
      "br": 1145,
      "broad": 1146,
      "dis": 1147,
      "fa": 1148,
      "fe": 1149,
      "flo": 1150,
      "give": 1151,
      "hu": 1152,
      "ick": 1153,
      "paring": 1154,
      "rally": 1155,
      "uck": 1156,
      "vers": 1157,
      "war": 1158,
      "wake": 1159,
      "reas": 1160,
      "recent": 1161,
      "they": 1162,
      "ence": 1163,
      "oming": 1164,
      "hel": 1165,
      "ury": 1166,
      "ives": 1167,
      "merges": 1168,
      "merging": 1169,
      "very": 1170,
      "keep": 1171,
      "debt": 1172,
      "changes": 1173,
      "mod": 1174,
      "technology": 1175,
      "filings": 1176,
      "buying": 1177,
      "booming": 1178,
      "closed": 1179,
      "try": 1180,
      "meet": 1181,
      "preparing": 1182,
      "focus": 1183,
      "EPS": 1184,
      "services": 1185,
      "mixed": 1186,
      "200": 1187,
      "Boo": 1188,
      "Buy": 1189,
      "Fall": 1190,
      "FDA": 1191,
      "Group": 1192,
      "Lat": 1193,
      "On": 1194,
      "SX": 1195,
      "Val": 1196,
      "Watch": 1197,
      "ag": 1198,
      "flation": 1199,
      "hal": 1200,
      "tum": 1201,
      "ves": 1202,
      "third": 1203,
      "tough": 1204,
      "iting": 1205,
      "start": 1206,
      "asing": 1207,
      "ears": 1208,
      "ending": 1209,
      "ady": 1210,
      "veral": 1211,
      "More": 1212,
      "Week": 1213,
      "ram": 1214,
      "posts": 1215,
      "Issu": 1216,
      "taking": 1217,
      "said": 1218,
      "restruct": 1219,
      "Economists": 1220,
      "Latest": 1221,
      "75": 1222,
      "Bo": 1223,
      "Clo": 1224,
      "Get": 1225,
      "MEX": 1226,
      "NC": 1227,
      "Vent": 1228,
      "ahead": 1229,
      "cr": 1230,
      "car": 1231,
      "gas": 1232,
      "jo": 1233,
      "min": 1234,
      "mand": 1235,
      "past": 1236,
      "sin": 1237,
      "sle": 1238,
      "ts": 1239,
      "tar": 1240,
      "turn": 1241,
      "tight": 1242,
      "ving": 1243,
      "vent": 1244,
      "was": 1245,
      "ero": 1246,
      "today": 1247,
      "reco": 1248,
      "lot": 1249,
      "law": 1250,
      "executive": 1251,
      "weigh": 1252,
      "point": 1253,
      "Court": 1254,
      "NYMEX": 1255,
      "Prices": 1256,
      "ssi": 1257,
      "decision": 1258,
      "IMF": 1259,
      "people": 1260,
      "equity": 1261,
      "direction": 1262,
      "broader": 1263,
      "reasury": 1264,
      "modity": 1265,
      "since": 1266,
      "25": 1267,
      "AT": 1268,
      "Billion": 1269,
      "GS": 1270,
      "Law": 1271,
      "Po": 1272,
      "Rec": 1273,
      "Securities": 1274,
      "TD": 1275,
      "Zuck": 1276,
      "electric": 1277,
      "fect": 1278,
      "ks": 1279,
      "mber": 1280,
      "tal": 1281,
      "would": 1282,
      "ering": 1283,
      "erberg": 1284,
      "ening": 1285,
      "enue": 1286,
      "ich": 1287,
      "guide": 1288,
      "ases": 1289,
      "Insider": 1290,
      "ade": 1291,
      "ower": 1292,
      "rises": 1293,
      "propos": 1294,
      "demand": 1295,
      "NYTimes": 1296,
      "surp": 1297,
      "making": 1298,
      "futures": 1299,
      "Several": 1300,
      "Profit": 1301,
      "Company": 1302,
      "volat": 1303,
      "wave": 1304,
      "rival": 1305,
      "ublic": 1306,
      "huge": 1307,
      "Zuckerberg": 1308,
      ",'": 1309,
      "AO": 1310,
      "Af": 1311,
      "File": 1312,
      "Hou": 1313,
      "air": 1314,
      "bad": 1315,
      "don": 1316,
      "fears": 1317,
      "hand": 1318,
      "less": 1319,
      "mu": 1320,
      "mart": 1321,
      "pla": 1322,
      "slow": 1323,
      "ware": 1324,
      "industrial": 1325,
      "think": 1326,
      "esid": 1327,
      "remain": 1328,
      "ative": 1329,
      "uring": 1330,
      "une": 1331,
      "term": 1332,
      "lays": 1333,
      "layoff": 1334,
      "risk": 1335,
      "imp": 1336,
      "ween": 1337,
      "possi": 1338,
      "able": 1339,
      "slugg": 1340,
      "raising": 1341,
      "result": 1342,
      "while": 1343,
      "which": 1344,
      "bond": 1345,
      "perform": 1346,
      "reportedly": 1347,
      "concerns": 1348,
      "between": 1349,
      "Outlook": 1350,
      "Valero": 1351,
      "tumble": 1352,
      "slew": 1353,
      "House": 1354,
      "esident": 1355,
      "sluggish": 1356,
      "27": 1357,
      "28": 1358,
      "3bn": 1359,
      "How": 1360,
      "IT": 1361,
      "May": 1362,
      "Next": 1363,
      "Ru": 1364,
      "Sep": 1365,
      "TSX": 1366,
      "YTD": 1367,
      "au": 1368,
      "average": 1369,
      "bb": 1370,
      "case": 1371,
      "fac": 1372,
      "ike": 1373,
      "os": 1374,
      "public": 1375,
      "raf": 1376,
      "whe": 1377,
      "tool": 1378,
      "ready": 1379,
      "ised": 1380,
      "step": 1381,
      "ass": 1382,
      "Reaction": 1383,
      "pped": 1384,
      "gold": 1385,
      "beat": 1386,
      "rack": 1387,
      "consider": 1388,
      "EOL": 1389,
      "slash": 1390,
      "gains": 1391,
      "revenue": 1392,
      "percent": 1393,
      "European": 1394,
      "putting": 1395,
      "finds": 1396,
      "concern": 1397,
      "launches": 1398,
      "Holdings": 1399,
      "seeks": 1400,
      "contin": 1401,
      "Pharmaceuticals": 1402,
      "cautious": 1403,
      "against": 1404,
      "target": 1405,
      "GSY": 1406,
      "proposed": 1407,
      "possible": 1408,
      "performance": 1409,
      "):": 1410,
      "--": 1411,
      "37": 1412,
      "AB": 1413,
      "Electric": 1414,
      "FI": 1415,
      "June": 1416,
      "Le": 1417,
      "Money": 1418,
      "Oba": 1419,
      "Su": 1420,
      "System": 1421,
      "ack": 1422,
      "ger": 1423,
      "ging": 1424,
      "group": 1425,
      "oint": 1426,
      "rong": 1427,
      "ration": 1428,
      "sale": 1429,
      "tent": 1430,
      "verg": 1431,
      "writ": 1432,
      "red": 1433,
      "reach": 1434,
      "retool": 1435,
      "etary": 1436,
      "isse": 1437,
      "lout": 1438,
      "asset": 1439,
      "come": 1440,
      "commer": 1441,
      "MarketWatch": 1442,
      "rising": 1443,
      "coun": 1444,
      "quest": 1445,
      "tember": 1446,
      "many": 1447,
      "falls": 1448,
      "announced": 1449,
      "Commodity": 1450,
      "employment": 1451,
      "buys": 1452,
      "ame": 1453,
      "amid": 1454,
      "getting": 1455,
      "Trade": 1456,
      "ollow": 1457,
      "appoint": 1458,
      "headlines": 1459,
      "series": 1460,
      "pressure": 1461,
      "months": 1462,
      "curren": 1463,
      "help": 1464,
      "half": 1465,
      "Issues": 1466,
      "crash": 1467,
      "join": 1468,
      "points": 1469,
      "AOL": 1470,
      "place": 1471,
      "September": 1472,
      "whether": 1473,
      "FINA": 1474,
      "Obama": 1475,
      "Suisse": 1476,
      "verge": 1477,
      "commerce": 1478,
      "15": 1479,
      "19": 1480,
      "21": 1481,
      "29": 1482,
      "32": 1483,
      "40": 1484,
      "43": 1485,
      "AL": 1486,
      "Apr": 1487,
      "Abb": 1488,
      "FX": 1489,
      "Mac": 1490,
      "Off": 1491,
      "Take": 1492,
      "Vie": 1493,
      "With": 1494,
      "Whit": 1495,
      "Year": 1496,
      "eve": 1497,
      "eep": 1498,
      "ilout": 1499,
      "pick": 1500,
      "sli": 1501,
      "sia": 1502,
      "ten": 1503,
      "ward": 1504,
      "were": 1505,
      "three": 1506,
      "alu": 1507,
      "reak": 1508,
      "ice": 1509,
      "ications": 1510,
      "Strong": 1511,
      "unemployment": 1512,
      "admin": 1513,
      "merged": 1514,
      "iring": 1515,
      "software": 1516,
      "ush": 1517,
      "highs": 1518,
      "like": 1519,
      "modit": 1520,
      "ability": 1521,
      "istration": 1522,
      "amin": 1523,
      "bailout": 1524,
      "who": 1525,
      "what": 1526,
      "issues": 1527,
      "reforms": 1528,
      "puter": 1529,
      "soaring": 1530,
      "slams": 1531,
      "brink": 1532,
      "fell": 1533,
      "flop": 1534,
      "Close": 1535,
      "Ventures": 1536,
      "weighing": 1537,
      "talks": 1538,
      "After": 1539,
      "Rules": 1540,
      "raft": 1541,
      "April": 1542,
      "AbbVie": 1543,
      "White": 1544,
      "administration": 1545,
      "modities": 1546,
      "08": 1547,
      "18": 1548,
      "31": 1549,
      "AM": 1550,
      "CNBC": 1551,
      "DB": 1552,
      "Fir": 1553,
      "Hit": 1554,
      "High": 1555,
      "Ir": 1556,
      "Lon": 1557,
      "ODA": 1558,
      "PG": 1559,
      "Sen": 1560,
      "Treasury": 1561,
      "ago": 1562,
      "bu": 1563,
      "business": 1564,
      "citing": 1565,
      "dle": 1566,
      "ey": 1567,
      "fact": 1568,
      "four": 1569,
      "ful": 1570,
      "giv": 1571,
      "gative": 1572,
      "hist": 1573,
      "hot": 1574,
      "led": 1575,
      "mers": 1576,
      "nearly": 1577,
      "ph": 1578,
      "part": 1579,
      "ry": 1580,
      "rating": 1581,
      "tg": 1582,
      "ti": 1583,
      "tur": 1584,
      "ust": 1585,
      "watch": 1586,
      "insur": 1587,
      "ared": 1588,
      "thing": 1589,
      "threat": 1590,
      "esh": 1591,
      "reve": 1592,
      "reopen": 1593,
      "reopens": 1594,
      "engin": 1595,
      "ition": 1596,
      "itch": 1597,
      "edge": 1598,
      "stim": 1599,
      "ivity": 1600,
      "USAT": 1601,
      "igns": 1602,
      "Inflation": 1603,
      "Rev": 1604,
      "unve": 1605,
      "ook": 1606,
      "ducer": 1607,
      "examin": 1608,
      "being": 1609,
      "below": 1610,
      "coll": 1611,
      "ession": 1612,
      "City": 1613,
      "looming": 1614,
      "morning": 1615,
      "mortg": 1616,
      "surges": 1617,
      "makers": 1618,
      "there": 1619,
      "acqu": 1620,
      "idea": 1621,
      "growing": 1622,
      "pital": 1623,
      "board": 1624,
      "large": 1625,
      "Seek": 1626,
      "monetary": 1627,
      "tries": 1628,
      "vote": 1629,
      "IMDB": 1630,
      "leading": 1631,
      "positive": 1632,
      "Futures": 1633,
      "trying": 1634,
      "restructuring": 1635,
      "surprise": 1636,
      "much": 1637,
      "impact": 1638,
      "results": 1639,
      "continue": 1640,
      "London": 1641,
      "ODAY": 1642,
      "USATODAY": 1643,
      "unveil": 1644,
      "30": 1645,
      "50": 1646,
      "70": 1647,
      "Bon": 1648,
      "Fide": 1649,
      "Jump": 1650,
      "Look": 1651,
      "Mid": 1652,
      "Mot": 1653,
      "Ne": 1654,
      "Say": 1655,
      "Some": 1656,
      "Ze": 1657,
      "best": 1658,
      "cy": 1659,
      "fram": 1660,
      "follow": 1661,
      "his": 1662,
      "hurt": 1663,
      "hike": 1664,
      "ian": 1665,
      "ior": 1666,
      "ls": 1667,
      "lend": 1668,
      "lity": 1669,
      "list": 1670,
      "mid": 1671,
      "pt": 1672,
      "prev": 1673,
      "ri": 1674,
      "sw": 1675,
      "sing": 1676,
      "sank": 1677,
      "tro": 1678,
      "ven": 1679,
      "ved": 1680,
      "another": 1681,
      "thor": 1682,
      "ese": 1683,
      "aland": 1684,
      "too": 1685,
      "lecom": 1686,
      "ework": 1687,
      "ecast": 1688,
      "comp": 1689,
      "commodities": 1690,
      "Inter": 1691,
      "Reform": 1692,
      "regulator": 1693,
      "adv": 1694,
      "duce": 1695,
      "goti": 1696,
      "impos": 1697,
      "pros": 1698,
      "process": 1699,
      "producer": 1700,
      "John": 1701,
      "Regulating": 1702,
      "days": 1703,
      "telecom": 1704,
      "ments": 1705,
      "fresh": 1706,
      "lows": 1707,
      "conf": 1708,
      "consu": 1709,
      "moil": 1710,
      "worth": 1711,
      "traders": 1712,
      "profile": 1713,
      "resigns": 1714,
      "both": 1715,
      "works": 1716,
      "decline": 1717,
      "iff": 1718,
      "cuss": 1719,
      "void": 1720,
      "investor": 1721,
      "approves": 1722,
      "boosted": 1723,
      "called": 1724,
      "evalu": 1725,
      "Future": 1726,
      "Share": 1727,
      "fault": 1728,
      "warning": 1729,
      "focuses": 1730,
      "recovery": 1731,
      "volatility": 1732,
      "airman": 1733,
      "considering": 1734,
      "reaches": 1735,
      "tense": 1736,
      "turmoil": 1737,
      "reveals": 1738,
      "collap": 1739,
      "Fidelity": 1740,
      "Zealand": 1741,
      "framework": 1742,
      "''": 1743,
      "16": 1744,
      "22": 1745,
      "36": 1746,
      "63": 1747,
      "90": 1748,
      "Ad": 1749,
      "Ar": 1750,
      "BN": 1751,
      "But": 1752,
      "CO": 1753,
      "Call": 1754,
      "Card": 1755,
      "East": 1756,
      "Fin": 1757,
      "Fred": 1758,
      "Ger": 1759,
      "Gen": 1760,
      "IG": 1761,
      "IAL": 1762,
      "JJ": 1763,
      "Jan": 1764,
      "Med": 1765,
      "Make": 1766,
      "Not": 1767,
      "Part": 1768,
      "Power": 1769,
      "Qu": 1770,
      "Red": 1771,
      "Rus": 1772,
      "Sm": 1773,
      "Tru": 1774,
      "Ya": 1775,
      "You": 1776,
      "ail": 1777,
      "aver": 1778,
      "awa": 1779,
      "bid": 1780,
      "bill": 1781,
      "bio": 1782,
      "che": 1783,
      "dra": 1784,
      "die": 1785,
      "eu": 1786,
      "elect": 1787,
      "fast": 1788,
      "file": 1789,
      "fty": 1790,
      "gloom": 1791,
      "gging": 1792,
      "hoo": 1793,
      "home": 1794,
      "just": 1795,
      "land": 1796,
      "light": 1797,
      "mark": 1798,
      "mun": 1799,
      "money": 1800,
      "made": 1801,
      "nation": 1802,
      "power": 1803,
      "ral": 1804,
      "ton": 1805,
      "tic": 1806,
      "track": 1807,
      "vs": 1808,
      "wit": 1809,
      "yet": 1810,
      "you": 1811,
      "ines": 1812,
      "orm": 1813,
      "rebo": 1814,
      "rethink": 1815,
      "ens": 1816,
      "enact": 1817,
      "itut": 1818,
      "icial": 1819,
      "hefty": 1820,
      "least": 1821,
      "ster": 1822,
      "stance": 1823,
      "stud": 1824,
      "stitut": 1825,
      "ased": 1826,
      "computer": 1827,
      "offers": 1828,
      "offering": 1829,
      "Invest": 1830,
      "Invent": 1831,
      "vel": 1832,
      "ild": 1833,
      "gov": 1834,
      "reporting": 1835,
      "ancell": 1836,
      "stra": 1837,
      "banking": 1838,
      "bankrupt": 1839,
      "affect": 1840,
      "Good": 1841,
      "tail": 1842,
      "Chinese": 1843,
      "potent": 1844,
      "should": 1845,
      "create": 1846,
      "happ": 1847,
      "rude": 1848,
      "plet": 1849,
      "Deal": 1850,
      "Dead": 1851,
      "Debt": 1852,
      "President": 1853,
      "expectations": 1854,
      "weeks": 1855,
      "eff": 1856,
      "effor": 1857,
      "effect": 1858,
      "ired": 1859,
      "Productivity": 1860,
      "monop": 1861,
      "India": 1862,
      "selling": 1863,
      "negative": 1864,
      "negoti": 1865,
      "approve": 1866,
      "soared": 1867,
      "release": 1868,
      "jumped": 1869,
      "2001": 1870,
      "Boosts": 1871,
      "Buying": 1872,
      "NCIAL": 1873,
      "cars": 1874,
      "tighten": 1875,
      "slowdown": 1876,
      "faces": 1877,
      "assets": 1878,
      "current": 1879,
      "FINANCIAL": 1880,
      "picks": 1881,
      "likely": 1882,
      "AMD": 1883,
      "First": 1884,
      "Senate": 1885,
      "history": 1886,
      "unveils": 1887,
      "Middle": 1888,
      "Says": 1889,
      "Internet": 1890,
      "Freddie": 1891,
      "Trump": 1892,
      "Yahoo": 1893,
      "gloomy": 1894,
      "study": 1895,
      "potential": 1896,
      ".'": 1897,
      ".-": 1898,
      ".:": 1899,
      "01": 1900,
      "02": 1901,
      "35": 1902,
      "300": 1903,
      "52": 1904,
      "65": 1905,
      "83": 1906,
      "85": 1907,
      "AR": 1908,
      "Au": 1909,
      "Air": 1910,
      "AIG": 1911,
      "Car": 1912,
      "Case": 1913,
      "DI": 1914,
      "Data": 1915,
      "FB": 1916,
      "Great": 1917,
      "IS": 1918,
      "Jers": 1919,
      "MS": 1920,
      "Mc": 1921,
      "Mex": 1922,
      "Mak": 1923,
      "NT": 1924,
      "Sp": 1925,
      "Sur": 1926,
      "Wor": 1927,
      "Will": 1928,
      "av": 1929,
      "bor": 1930,
      "bat": 1931,
      "can": 1932,
      "crude": 1933,
      "dr": 1934,
      "dou": 1935,
      "ease": 1936,
      "fun": 1937,
      "gr": 1938,
      "gis": 1939,
      "gives": 1940,
      "gram": 1941,
      "how": 1942,
      "ik": 1943,
      "ium": 1944,
      "jit": 1945,
      "nu": 1946,
      "oly": 1947,
      "pace": 1948,
      "pack": 1949,
      "sen": 1950,
      "sour": 1951,
      "sna": 1952,
      "smart": 1953,
      "treasury": 1954,
      "uary": 1955,
      "yen": 1956,
      "your": 1957,
      "any": 1958,
      "ari": 1959,
      "ories": 1960,
      "esman": 1961,
      "reed": 1962,
      "recess": 1963,
      "retail": 1964,
      "idence": 1965,
      "ico": 1966,
      "level": 1967,
      "steep": 1968,
      "forc": 1969,
      "fore": 1970,
      "complet": 1971,
      "Ins": 1972,
      "Insur": 1973,
      "Job": 1974,
      "Reli": 1975,
      "regulating": 1976,
      "Newly": 1977,
      "unit": 1978,
      "sells": 1979,
      "ents": 1980,
      "import": 1981,
      "program": 1982,
      "Chancell": 1983,
      "prom": 1984,
      "president": 1985,
      "bankruptcies": 1986,
      "okesman": 1987,
      "outlines": 1988,
      "downturn": 1989,
      "show": 1990,
      "lier": 1991,
      "ize": 1992,
      "haul": 1993,
      "rule": 1994,
      "Merge": 1995,
      "moving": 1996,
      "worst": 1997,
      "overhaul": 1998,
      "slump": 1999,
      "trade": 2000,
      "expects": 2001,
      "akes": 2002,
      "gets": 2003,
      "revers": 2004,
      "doz": 2005,
      "ift": 2006,
      "ways": 2007,
      "ulus": 2008,
      "Technology": 2009,
      "payout": 2010,
      "ield": 2011,
      "leaders": 2012,
      "apter": 2013,
      "equities": 2014,
      "contro": 2015,
      "spokesman": 2016,
      "signals": 2017,
      "releasing": 2018,
      "medical": 2019,
      "caution": 2020,
      "Decline": 2021,
      "Boost": 2022,
      "tougher": 2023,
      "tightening": 2024,
      "volatile": 2025,
      "handful": 2026,
      "concerned": 2027,
      "GSYNC": 2028,
      "Systems": 2029,
      "writes": 2030,
      "country": 2031,
      "Higher": 2032,
      "Iran": 2033,
      "engineer": 2034,
      "stimulus": 2035,
      "Review": 2036,
      "examining": 2037,
      "mortgage": 2038,
      "largely": 2039,
      "Bonds": 2040,
      "ried": 2041,
      "telecommun": 2042,
      "confidence": 2043,
      "consumer": 2044,
      "collapse": 2045,
      "Finance": 2046,
      "January": 2047,
      "Quarter": 2048,
      "Russia": 2049,
      "biotech": 2050,
      "euro": 2051,
      "rebound": 2052,
      "straight": 2053,
      "efforts": 2054,
      "monopoly": 2055,
      "Jersey": 2056,
      "Mexico": 2057,
      "recession": 2058,
      "Chancellor": 2059,
      "telecommunications": 2060,
      "',": 2061,
      "23": 2062,
      "24": 2063,
      "26": 2064,
      "55": 2065,
      "82": 2066,
      "Aims": 2067,
      "Aff": 2068,
      "Bay": 2069,
      "Bro": 2070,
      "BIT": 2071,
      "Cut": 2072,
      "Char": 2073,
      "Dis": 2074,
      "Dail": 2075,
      "EA": 2076,
      "EBIT": 2077,
      "Go": 2078,
      "Hits": 2079,
      "Jeff": 2080,
      "Low": 2081,
      "Me": 2082,
      "NG": 2083,
      "NN": 2084,
      "NS": 2085,
      "ON": 2086,
      "Pe": 2087,
      "Pl": 2088,
      "Pad": 2089,
      "Play": 2090,
      "Pitch": 2091,
      "Pari": 2092,
      "San": 2093,
      "Sil": 2094,
      "Soft": 2095,
      "UK": 2096,
      "Wal": 2097,
      "ben": 2098,
      "bers": 2099,
      "bra": 2100,
      "break": 2101,
      "ci": 2102,
      "cast": 2103,
      "dom": 2104,
      "ded": 2105,
      "date": 2106,
      "el": 2107,
      "ever": 2108,
      "emerging": 2109,
      "eBay": 2110,
      "fl": 2111,
      "ft": 2112,
      "five": 2113,
      "food": 2114,
      "face": 2115,
      "flect": 2116,
      "free": 2117,
      "grad": 2118,
      "ho": 2119,
      "hip": 2120,
      "hiring": 2121,
      "ib": 2122,
      "ient": 2123,
      "iPad": 2124,
      "ject": 2125,
      "know": 2126,
      "lf": 2127,
      "let": 2128,
      "ms": 2129,
      "mical": 2130,
      "ner": 2131,
      "oto": 2132,
      "ound": 2133,
      "pur": 2134,
      "pass": 2135,
      "push": 2136,
      "run": 2137,
      "sn": 2138,
      "sup": 2139,
      "saf": 2140,
      "swe": 2141,
      "sol": 2142,
      "securities": 2143,
      "ters": 2144,
      "use": 2145,
      "ufact": 2146,
      "val": 2147,
      "wall": 2148,
      "yield": 2149,
      "zone": 2150,
      "ang": 2151,
      "ort": 2152,
      "alle": 2153,
      "real": 2154,
      "return": 2155,
      "reflect": 2156,
      "them": 2157,
      "oment": 2158,
      "iding": 2159,
      "update": 2160,
      "lost": 2161,
      "andal": 2162,
      "andard": 2163,
      "lative": 2164,
      "earlier": 2165,
      "Still": 2166,
      "Store": 2167,
      "estim": 2168,
      "official": 2169,
      "chairman": 2170,
      "territ": 2171,
      "iled": 2172,
      "sees": 2173,
      "kept": 2174,
      "Appro": 2175,
      "Chapter": 2176,
      "strugg": 2177,
      "begin": 2178,
      "users": 2179,
      "looks": 2180,
      "Regulate": 2181,
      "unces": 2182,
      "default": 2183,
      "corre": 2184,
      "post": 2185,
      "poised": 2186,
      "changed": 2187,
      "manufact": 2188,
      "falling": 2189,
      "rum": 2190,
      "worried": 2191,
      "agement": 2192,
      "pective": 2193,
      "Businessman": 2194,
      "inted": 2195,
      "increases": 2196,
      "Dell": 2197,
      "raised": 2198,
      "acce": 2199,
      "traded": 2200,
      "filed": 2201,
      "eping": 2202,
      "among": 2203,
      "Photo": 2204,
      "gaining": 2205,
      "revised": 2206,
      "Under": 2207,
      "clear": 2208,
      "udge": 2209,
      "Than": 2210,
      "workforce": 2211,
      "ashing": 2212,
      "Consu": 2213,
      "topic": 2214,
      "scandal": 2215,
      "rict": 2216,
      "custo": 2217,
      "also": 2218,
      "Creditors": 2219,
      "Economy": 2220,
      "2015": 2221,
      "finance": 2222,
      "pens": 2223,
      "need": 2224,
      "approach": 2225,
      "weaker": 2226,
      "plunged": 2227,
      "better": 2228,
      "announcement": 2229,
      "rivals": 2230,
      "Biggest": 2231,
      "Bigger": 2232,
      "underway": 2233,
      "pression": 2234,
      "releases": 2235,
      "Analysts": 2236,
      "disappoint": 2237,
      "discuss": 2238,
      "verse": 2239,
      "versial": 2240,
      "meeting": 2241,
      "agreed": 2242,
      "Issue": 2243,
      "restructure": 2244,
      "Board": 2245,
      "Venture": 2246,
      "recover": 2247,
      "Posts": 2248,
      "Recession": 2249,
      "guideline": 2250,
      "facing": 2251,
      "slashes": 2252,
      "retooling": 2253,
      "questions": 2254,
      "joins": 2255,
      "fourth": 2256,
      "giving": 2257,
      "phone": 2258,
      "previous": 2259,
      "evaluating": 2260,
      "Artic": 2261,
      "BNP": 2262,
      "Germany": 2263,
      "avert": 2264,
      "await": 2265,
      "chemical": 2266,
      "stitutions": 2267,
      "happy": 2268,
      "Deadline": 2269,
      "negotiating": 2270,
      "Makers": 2271,
      "jitters": 2272,
      "package": 2273,
      "important": 2274,
      "controversial": 2275,
      "engineering": 2276,
      "Daily": 2277,
      "EBITDA": 2278,
      "Paribas": 2279,
      "Walmart": 2280,
      "sweeping": 2281,
      "alleged": 2282,
      "territory": 2283,
      "disappointing": 2284,
      "&#": 2285,
      "2bn": 2286,
      "33": 2287,
      "45": 2288,
      "4bn": 2289,
      "60": 2290,
      "66": 2291,
      "87": 2292,
      "900": 2293,
      "Al": 2294,
      "At": 2295,
      "Asia": 2296,
      "BU": 2297,
      "Bio": 2298,
      "Break": 2299,
      "CS": 2300,
      "Ca": 2301,
      "Day": 2302,
      "Down": 2303,
      "EU": 2304,
      "Employ": 2305,
      "EES": 2306,
      "Emerging": 2307,
      "Fire": 2308,
      "Gas": 2309,
      "Gain": 2310,
      "Kore": 2311,
      "Keep": 2312,
      "Kraft": 2313,
      "Long": 2314,
      "MB": 2315,
      "MIT": 2316,
      "NE": 2317,
      "Net": 2318,
      "Over": 2319,
      "Per": 2320,
      "Pet": 2321,
      "Pol": 2322,
      "RT": 2323,
      "Ret": 2324,
      "Son": 2325,
      "Sees": 2326,
      "SCO": 2327,
      "Two": 2328,
      "Twit": 2329,
      "Wik": 2330,
      "Washing": 2331,
      "aid": 2332,
      "ave": 2333,
      "ages": 2334,
      "avoid": 2335,
      "ban": 2336,
      "bin": 2337,
      "bla": 2338,
      "bling": 2339,
      "cli": 2340,
      "cash": 2341,
      "dre": 2342,
      "dro": 2343,
      "ell": 2344,
      "emerg": 2345,
      "easing": 2346,
      "fund": 2347,
      "gh": 2348,
      "hor": 2349,
      "here": 2350,
      "hore": 2351,
      "hos": 2352,
      "lu": 2353,
      "lending": 2354,
      "mis": 2355,
      "mass": 2356,
      "ners": 2357,
      "ola": 2358,
      "play": 2359,
      "right": 2360,
      "rift": 2361,
      "sold": 2362,
      "spl": 2363,
      "six": 2364,
      "skept": 2365,
      "ties": 2366,
      "vir": 2367,
      "vish": 2368,
      "want": 2369,
      "wind": 2370,
      "ys": 2371,
      "ype": 2372,
      "zos": 2373,
      "ange": 2374,
      "ins": 2375,
      "invent": 2376,
      "erence": 2377,
      "aren": 2378,
      "esn": 2379,
      "toward": 2380,
      "reduce": 2381,
      "att": 2382,
      "ator": 2383,
      "atings": 2384,
      "ators": 2385,
      "atives": 2386,
      "eta": 2387,
      "etition": 2388,
      "enter": 2389,
      "enforce": 2390,
      "isition": 2391,
      "ite": 2392,
      "itor": 2393,
      "itial": 2394,
      "itse": 2395,
      "upcoming": 2396,
      "edia": 2397,
      "ici": 2398,
      "icy": 2399,
      "icon": 2400,
      "loan": 2401,
      "ste": 2402,
      "ston": 2403,
      "stay": 2404,
      "state": 2405,
      "storm": 2406,
      "ution": 2407,
      "later": 2408,
      "forecast": 2409,
      "asy": 2410,
      "ason": 2411,
      "ecu": 2412,
      "urse": 2413,
      "ivision": 2414,
      "ivatives": 2415,
      "earn": 2416,
      "earing": 2417,
      "earch": 2418,
      "Steve": 2419,
      "Stability": 2420,
      "commodity": 2421,
      "offer": 2422,
      "hard": 2423,
      "erspective": 2424,
      "Industry": 2425,
      "Rele": 2426,
      "React": 2427,
      "Remain": 2428,
      "ung": 2429,
      "unt": 2430,
      "unchanged": 2431,
      "ads": 2432,
      "adop": 2433,
      "adrift": 2434,
      "poration": 2435,
      "laying": 2436,
      "master": 2437,
      "offshore": 2438,
      "portfo": 2439,
      "ancisco": 2440,
      "goes": 2441,
      "seen": 2442,
      "impo": 2443,
      "vere": 2444,
      "nov": 2445,
      "nounces": 2446,
      "bankers": 2447,
      "exper": 2448,
      "execut": 2449,
      "beli": 2450,
      "cost": 2451,
      "code": 2452,
      "course": 2453,
      "saying": 2454,
      "ract": 2455,
      "Expect": 2456,
      "Exchanges": 2457,
      "deb": 2458,
      "shut": 2459,
      "shale": 2460,
      "stronger": 2461,
      "lio": 2462,
      "lift": 2463,
      "management": 2464,
      "cons": 2465,
      "ization": 2466,
      "announcing": 2467,
      "Mergers": 2468,
      "Comcast": 2469,
      "sure": 2470,
      "End": 2471,
      "antit": 2472,
      "increasing": 2473,
      "derivatives": 2474,
      "Deflation": 2475,
      "Price": 2476,
      "files": 2477,
      "majority": 2478,
      "Pays": 2479,
      "eps": 2480,
      "notch": 2481,
      "ams": 2482,
      "pitals": 2483,
      "weekend": 2484,
      "Francisco": 2485,
      "cutting": 2486,
      "indle": 2487,
      "reserve": 2488,
      "resol": 2489,
      "economics": 2490,
      "settle": 2491,
      "ipedia": 2492,
      "door": 2493,
      "dovish": 2494,
      "closing": 2495,
      "Mode": 2496,
      "Rises": 2497,
      "ember": 2498,
      "decade": 2499,
      "Reports": 2500,
      "issued": 2501,
      "headed": 2502,
      "uncertain": 2503,
      "central": 2504,
      "cards": 2505,
      "ific": 2506,
      "Corporation": 2507,
      "siders": 2508,
      "waiting": 2509,
      "2014": 2510,
      "finish": 2511,
      "profitable": 2512,
      "Canadian": 2513,
      "weakening": 2514,
      "paying": 2515,
      "soon": 2516,
      "Bezos": 2517,
      "Forecast": 2518,
      "drugmaker": 2519,
      "EPA": 2520,
      "slammed": 2521,
      "climbed": 2522,
      "posite": 2523,
      "December": 2524,
      "bring": 2525,
      "2008": 2526,
      "halt": 2527,
      "Gets": 2528,
      "Getting": 2529,
      "Lawyers": 2530,
      "handling": 2531,
      "risky": 2532,
      "auto": 2533,
      "author": 2534,
      "tention": 2535,
      "question": 2536,
      "FINAL": 2537,
      "slip": 2538,
      "build": 2539,
      "given": 2540,
      "insurance": 2541,
      "acquisition": 2542,
      "Motor": 2543,
      "Motors": 2544,
      "iority": 2545,
      "lender": 2546,
      "lenders": 2547,
      "midst": 2548,
      "single": 2549,
      "advis": 2550,
      "imposes": 2551,
      "prospect": 2552,
      "90s": 2553,
      "General": 2554,
      "Medic": 2555,
      "Partners": 2556,
      "Small": 2557,
      "drag": 2558,
      "elected": 2559,
      "Investing": 2560,
      "Inventories": 2561,
      "Airways": 2562,
      "MSFT": 2563,
      "nuclear": 2564,
      "source": 2565,
      "smartphone": 2566,
      "Insight": 2567,
      "Insurance": 2568,
      "reversal": 2569,
      "eurozone": 2570,
      "domin": 2571,
      "safe": 2572,
      "returns": 2573,
      "reflects": 2574,
      "Approach": 2575,
      "struggling": 2576,
      "correction": 2577,
      "rictions": 2578,
      "customers": 2579,
      "pensive": 2580,
      "Capital": 2581,
      "Korea": 2582,
      "Policy": 2583,
      "Twitter": 2584,
      "Wikipedia": 2585,
      "Washington": 2586,
      "emergence": 2587,
      "horizon": 2588,
      "massive": 2589,
      "skeptical": 2590,
      "itself": 2591,
      "portfolio": 2592,
      "impose": 2593,
      "executives": 2594,
      "believe": 2595,
      ",\"": 2596,
      "05": 2597,
      "34": 2598,
      "38": 2599,
      "41": 2600,
      "47": 2601,
      "53": 2602,
      "5bn": 2603,
      "62": 2604,
      "600": 2605,
      "Ano": 2606,
      "Ass": 2607,
      "Again": 2608,
      "Ahead": 2609,
      "BS": 2610,
      "Bu": 2611,
      "Bit": 2612,
      "Bill": 2613,
      "Banc": 2614,
      "Back": 2615,
      "Cl": 2616,
      "Cr": 2617,
      "Cent": 2618,
      "Cong": 2619,
      "CNN": 2620,
      "Don": 2621,
      "Dire": 2622,
      "ET": 2623,
      "Ear": 2624,
      "Eve": 2625,
      "ENA": 2626,
      "Ebo": 2627,
      "Estim": 2628,
      "Els": 2629,
      "ENT": 2630,
      "FO": 2631,
      "Fe": 2632,
      "Fo": 2633,
      "Foo": 2634,
      "Follow": 2635,
      "GN": 2636,
      "Gover": 2637,
      "GDI": 2638,
      "HA": 2639,
      "Home": 2640,
      "Imp": 2641,
      "ING": 2642,
      "Judge": 2643,
      "Kindle": 2644,
      "Mem": 2645,
      "Meta": 2646,
      "NER": 2647,
      "OV": 2648,
      "Oc": 2649,
      "Others": 2650,
      "Pan": 2651,
      "Perspective": 2652,
      "Q4": 2653,
      "RI": 2654,
      "Rest": 2655,
      "REA": 2656,
      "Ratings": 2657,
      "Sl": 2658,
      "Sw": 2659,
      "Sup": 2660,
      "Sug": 2661,
      "Six": 2662,
      "Sams": 2663,
      "Ter": 2664,
      "Track": 2665,
      "TAR": 2666,
      "UBS": 2667,
      "Work": 2668,
      "Xin": 2669,
      "Yell": 2670,
      "ai": 2671,
      "aim": 2672,
      "agen": 2673,
      "bec": 2674,
      "blow": 2675,
      "bru": 2676,
      "cal": 2677,
      "ced": 2678,
      "cies": 2679,
      "cant": 2680,
      "crow": 2681,
      "crit": 2682,
      "ccess": 2683,
      "did": 2684,
      "dark": 2685,
      "dig": 2686,
      "dive": 2687,
      "done": 2688,
      "diff": 2689,
      "eline": 2690,
      "fic": 2691,
      "fra": 2692,
      "fired": 2693,
      "gth": 2694,
      "gime": 2695,
      "great": 2696,
      "hic": 2697,
      "hire": 2698,
      "iShares": 2699,
      "iReport": 2700,
      "ially": 2701,
      "jugg": 2702,
      "ked": 2703,
      "kers": 2704,
      "ler": 2705,
      "lish": 2706,
      "lster": 2707,
      "mm": 2708,
      "ming": 2709,
      "mob": 2710,
      "might": 2711,
      "mood": 2712,
      "moment": 2713,
      "minted": 2714,
      "ned": 2715,
      "nam": 2716,
      "natural": 2717,
      "name": 2718,
      "overs": 2719,
      "oci": 2720,
      "pat": 2721,
      "ply": 2722,
      "pact": 2723,
      "pip": 2724,
      "pending": 2725,
      "paid": 2726,
      "rid": 2727,
      "rush": 2728,
      "sk": 2729,
      "sto": 2730,
      "sit": 2731,
      "sed": 2732,
      "sus": 2733,
      "spo": 2734,
      "spe": 2735,
      "swar": 2736,
      "shel": 2737,
      "same": 2738,
      "session": 2739,
      "tion": 2740,
      "test": 2741,
      "tad": 2742,
      "tim": 2743,
      "tect": 2744,
      "tally": 2745,
      "ual": 2746,
      "ull": 2747,
      "ular": 2748,
      "win": 2749,
      "warnings": 2750,
      "ine": 2751,
      "inflation": 2752,
      "income": 2753,
      "institutions": 2754,
      "initial": 2755,
      "erna": 2756,
      "around": 2757,
      "things": 2758,
      "ord": 2759,
      "organ": 2760,
      "ons": 2761,
      "onment": 2762,
      "online": 2763,
      "tober": 2764,
      "ret": 2765,
      "relat": 2766,
      "reaf": 2767,
      "reli": 2768,
      "rewrit": 2769,
      "recalled": 2770,
      "regime": 2771,
      "attention": 2772,
      "etering": 2773,
      "ened": 2774,
      "envir": 2775,
      "isn": 2776,
      "cks": 2777,
      "ided": 2778,
      "upbeat": 2779,
      "eds": 2780,
      "room": 2781,
      "rough": 2782,
      "icators": 2783,
      "lose": 2784,
      "losing": 2785,
      "lea": 2786,
      "ewhere": 2787,
      "anding": 2788,
      "stain": 2789,
      "stren": 2790,
      "stakes": 2791,
      "lling": 2792,
      "gular": 2793,
      "PORT": 2794,
      "late": 2795,
      "forward": 2796,
      "urry": 2797,
      "USA": 2798,
      "Standard": 2799,
      "combin": 2800,
      "estab": 2801,
      "Incre": 2802,
      "Intense": 2803,
      "illing": 2804,
      "Requ": 2805,
      "Ready": 2806,
      "Rethink": 2807,
      "Relative": 2808,
      "regulated": 2809,
      "pants": 2810,
      "unds": 2811,
      "chance": 2812,
      "chase": 2813,
      "chip": 2814,
      "tery": 2815,
      "mail": 2816,
      "mergers": 2817,
      "vey": 2818,
      "vember": 2819,
      "vehic": 2820,
      "labor": 2821,
      "iling": 2822,
      "pping": 2823,
      "ports": 2824,
      "seven": 2825,
      "severe": 2826,
      "ires": 2827,
      "enters": 2828,
      "rised": 2829,
      "impro": 2830,
      "provid": 2831,
      "proble": 2832,
      "Chief": 2833,
      "Chairman": 2834,
      "priority": 2835,
      "ectors": 2836,
      "exp": 2837,
      "exchange": 2838,
      "exports": 2839,
      "before": 2840,
      "Weak": 2841,
      "using": 2842,
      "coin": 2843,
      "costs": 2844,
      "court": 2845,
      "Express": 2846,
      "Executive": 2847,
      "JPM": 2848,
      "quantit": 2849,
      "table": 2850,
      "downgrad": 2851,
      "corpor": 2852,
      "tether": 2853,
      "team": 2854,
      "teetering": 2855,
      "healthy": 2856,
      "highest": 2857,
      "shake": 2858,
      "shak": 2859,
      "short": 2860,
      "haven": 2861,
      "hailed": 2862,
      "Coal": 2863,
      "Coke": 2864,
      "Code": 2865,
      "Comp": 2866,
      "Computer": 2867,
      "Composite": 2868,
      "abo": 2869,
      "sustain": 2870,
      "Mercant": 2871,
      "Update1": 2872,
      "survey": 2873,
      "antic": 2874,
      "ltdown": 2875,
      "bye": 2876,
      "Depart": 2877,
      "Default": 2878,
      "Press": 2879,
      "dealers": 2880,
      "expecting": 2881,
      "Paying": 2882,
      "ouble": 2883,
      "ough": 2884,
      "Mobile": 2885,
      "resha": 2886,
      "ational": 2887,
      "bolster": 2888,
      "ireless": 2889,
      "Products": 2890,
      "Third": 2891,
      "Trader": 2892,
      "Trades": 2893,
      "doesn": 2894,
      "takeover": 2895,
      "closer": 2896,
      "Move": 2897,
      "Rising": 2898,
      "Conduct": 2899,
      "taken": 2900,
      "Seem": 2901,
      "decided": 2902,
      "Reporting": 2903,
      "Reported": 2904,
      "drops": 2905,
      "Guide": 2906,
      "trillion": 2907,
      "Corporate": 2908,
      "Indy": 2909,
      "lowered": 2910,
      "creditors": 2911,
      "basis": 2912,
      "backed": 2913,
      "puts": 2914,
      "sagging": 2915,
      "meltdown": 2916,
      "Its": 2917,
      "ney": 2918,
      "approved": 2919,
      "approval": 2920,
      "Commit": 2921,
      "MasterCard": 2922,
      "capital": 2923,
      "mostly": 2924,
      "November": 2925,
      "Opens": 2926,
      "ecurity": 2927,
      "calling": 2928,
      "signific": 2929,
      "ubled": 2930,
      "even": 2931,
      "events": 2932,
      "tyco": 2933,
      "opleSoft": 2934,
      "position": 2935,
      "Announces": 2936,
      "Decision": 2937,
      "disaster": 2938,
      "float": 2939,
      "flock": 2940,
      "hua": 2941,
      "warns": 2942,
      "debts": 2943,
      "meets": 2944,
      "focusing": 2945,
      "Valley": 2946,
      "Boston": 2947,
      "joint": 2948,
      "minder": 2949,
      "tariff": 2950,
      "venture": 2951,
      "lawsu": 2952,
      "Laws": 2953,
      "surprised": 2954,
      "hands": 2955,
      "remains": 2956,
      "imple": 2957,
      "ause": 2958,
      "beats": 2959,
      "continu": 2960,
      "ABB": 2961,
      "Electricity": 2962,
      "retools": 2963,
      "count": 2964,
      "slick": 2965,
      "slipped": 2966,
      "bull": 2967,
      "factor": 2968,
      "phones": 2969,
      "insurer": 2970,
      "threatening": 2971,
      "engine": 2972,
      "mortgages": 2973,
      "acquiring": 2974,
      "Seeks": 2975,
      "Looking": 2976,
      "prevent": 2977,
      "troubled": 2978,
      "thority": 2979,
      "imposing": 2980,
      "prosecut": 2981,
      "Shareholders": 2982,
      "Adverse": 2983,
      "Partici": 2984,
      "marks": 2985,
      "enactment": 2986,
      "Authority": 2987,
      "ISIS": 2988,
      "McC": 2989,
      "Specu": 2990,
      "Surp": 2991,
      "World": 2992,
      "battle": 2993,
      "drilling": 2994,
      "grip": 2995,
      "forcing": 2996,
      "completed": 2997,
      "completion": 2998,
      "Relief": 2999,
      "dozen": 3000,
      "dozens": 3001,
      "Afflu": 3002,
      "Brokers": 3003,
      "NSA": 3004,
      "PeopleSoft": 3005,
      "Plan": 3006,
      "Silicon": 3007,
      "benef": 3008,
      "bership": 3009,
      "flurry": 3010,
      "housing": 3011,
      "pursu": 3012,
      "supply": 3013,
      "solid": 3014,
      "yields": 3015,
      "estimates": 3016,
      "manufactur": 3017,
      "rumors": 3018,
      "acceler": 3019,
      "Consumers": 3020,
      "Article": 3021,
      "averted": 3022,
      "Almost": 3023,
      "Biotechnology": 3024,
      "Breakdown": 3025,
      "Employees": 3026,
      "NEW": 3027,
      "Percent": 3028,
      "Sony": 3029,
      "dropped": 3030,
      "hospitals": 3031,
      "mistake": 3032,
      "splash": 3033,
      "stepped": 3034,
      "Reactions": 3035,
      "mastercard": 3036,
      "novation": 3037,
      "debate": 3038,
      "increasingly": 3039,
      "resolution": 3040,
      "settlement": 3041,
      "finished": 3042,
      "Motorola": 3043,
      "dragged": 3044,
      "dominate": 3045,
      "Another": 3046,
      "Associ": 3047,
      "Billboard": 3048,
      "Congr": 3049,
      "CNNMoney": 3050,
      "Ebola": 3051,
      "Estimates": 3052,
      "Elsewhere": 3053,
      "Febru": 3054,
      "Foods": 3055,
      "Govern": 3056,
      "Impact": 3057,
      "Membership": 3058,
      "October": 3059,
      "Restrictions": 3060,
      "READ": 3061,
      "Samsung": 3062,
      "Term": 3063,
      "Xinhua": 3064,
      "Yellen": 3065,
      "aimed": 3066,
      "crowded": 3067,
      "fraud": 3068,
      "juggerna": 3069,
      "mobile": 3070,
      "momentum": 3071,
      "oversight": 3072,
      "pipeline": 3073,
      "spot": 3074,
      "related": 3075,
      "environment": 3076,
      "strength": 3077,
      "establish": 3078,
      "Rethinking": 3079,
      "Relatively": 3080,
      "provider": 3081,
      "problem": 3082,
      "quantitative": 3083,
      "downgrades": 3084,
      "shaky": 3085,
      "Mercantile": 3086,
      "Department": 3087,
      "significant": 3088,
      "Participants": 3089,
      "Speculation": 3090,
      "Affluent": 3091,
      "February": 3092,
      "juggernaut": 3093,
      "($": 3094,
      "(£": 3095,
      "04": 3096,
      "06": 3097,
      "07": 3098,
      "09": 3099,
      "180": 3100,
      "48": 3101,
      "450": 3102,
      "51": 3103,
      "58": 3104,
      "68": 3105,
      "79": 3106,
      "700": 3107,
      "89": 3108,
      "800": 3109,
      "95": 3110,
      "?'": 3111,
      "AG": 3112,
      "Ac": 3113,
      "As": 3114,
      "Av": 3115,
      "Ax": 3116,
      "Act": 3117,
      "ANT": 3118,
      "Bl": 3119,
      "By": 3120,
      "Ber": 3121,
      "Best": 3122,
      "Bad": 3123,
      "Bra": 3124,
      "BBC": 3125,
      "BRI": 3126,
      "CC": 3127,
      "CI": 3128,
      "CK": 3129,
      "CR": 3130,
      "Cla": 3131,
      "Cash": 3132,
      "CSX": 3133,
      "DE": 3134,
      "Do": 3135,
      "Dan": 3136,
      "Drug": 3137,
      "During": 3138,
      "Division": 3139,
      "Em": 3140,
      "Ey": 3141,
      "Era": 3142,
      "Equ": 3143,
      "Elect": 3144,
      "ENER": 3145,
      "Fil": 3146,
      "Fitch": 3147,
      "GY": 3148,
      "Gad": 3149,
      "Gla": 3150,
      "Grow": 3151,
      "GAO": 3152,
      "HD": 3153,
      "HP": 3154,
      "Hos": 3155,
      "Have": 3156,
      "Im": 3157,
      "Ima": 3158,
      "Ju": 3159,
      "Jon": 3160,
      "Jam": 3161,
      "Just": 3162,
      "Jason": 3163,
      "KP": 3164,
      "Ko": 3165,
      "Ks": 3166,
      "Kline": 3167,
      "LL": 3168,
      "LV": 3169,
      "Live": 3170,
      "Last": 3171,
      "List": 3172,
      "Lasset": 3173,
      "LNG": 3174,
      "MO": 3175,
      "Min": 3176,
      "Men": 3177,
      "Mart": 3178,
      "MERC": 3179,
      "Moment": 3180,
      "NP": 3181,
      "Nor": 3182,
      "NIM": 3183,
      "NIB": 3184,
      "NDI": 3185,
      "National": 3186,
      "OP": 3187,
      "Oct": 3188,
      "OKs": 3189,
      "Pa": 3190,
      "Pur": 3191,
      "Pia": 3192,
      "Path": 3193,
      "Public": 3194,
      "Q3": 3195,
      "RE": 3196,
      "RO": 3197,
      "RP": 3198,
      "Rs": 3199,
      "Rate": 3200,
      "Rob": 3201,
      "Rates": 3202,
      "Rally": 3203,
      "Range": 3204,
      "SI": 3205,
      "Si": 3206,
      "So": 3207,
      "Sy": 3208,
      "Sing": 3209,
      "Spr": 3210,
      "Squ": 3211,
      "Swe": 3212,
      "Spect": 3213,
      "Sour": 3214,
      "Swit": 3215,
      "Security": 3216,
      "Te": 3217,
      "To": 3218,
      "Tr": 3219,
      "Tw": 3220,
      "Tur": 3221,
      "Tow": 3222,
      "Tul": 3223,
      "Takes": 3224,
      "Uns": 3225,
      "VC": 3226,
      "Vir": 3227,
      "View": 3228,
      "War": 3229,
      "Way": 3230,
      "Wireless": 3231,
      "Xen": 3232,
      "XDA": 3233,
      "Xia": 3234,
      "XON": 3235,
      "YER": 3236,
      "ais": 3237,
      "ama": 3238,
      "athan": 3239,
      "aire": 3240,
      "away": 3241,
      "afore": 3242,
      "bi": 3243,
      "bar": 3244,
      "bes": 3245,
      "bre": 3246,
      "bear": 3247,
      "bles": 3248,
      "cing": 3249,
      "cit": 3250,
      "char": 3251,
      "canc": 3252,
      "certa": 3253,
      "dy": 3254,
      "des": 3255,
      "det": 3256,
      "den": 3257,
      "dic": 3258,
      "dip": 3259,
      "dash": 3260,
      "driv": 3261,
      "draf": 3262,
      "dwind": 3263,
      "division": 3264,
      "emerge": 3265,
      "emplo": 3266,
      "easy": 3267,
      "fi": 3268,
      "fy": 3269,
      "fan": 3270,
      "flat": 3271,
      "fur": 3272,
      "fear": 3273,
      "fad": 3274,
      "fees": 3275,
      "find": 3276,
      "fire": 3277,
      "fix": 3278,
      "full": 3279,
      "gn": 3280,
      "gy": 3281,
      "gree": 3282,
      "ground": 3283,
      "hur": 3284,
      "hop": 3285,
      "hour": 3286,
      "hood": 3287,
      "hedge": 3288,
      "hype": 3289,
      "hires": 3290,
      "ij": 3291,
      "ipp": 3292,
      "iance": 3293,
      "iBoo": 3294,
      "ibb": 3295,
      "judge": 3296,
      "kn": 3297,
      "kes": 3298,
      "lim": 3299,
      "mal": 3300,
      "men": 3301,
      "mend": 3302,
      "mult": 3303,
      "ny": 3304,
      "non": 3305,
      "nank": 3306,
      "nergy": 3307,
      "norm": 3308,
      "nearing": 3309,
      "ous": 3310,
      "oSm": 3311,
      "ps": 3312,
      "par": 3313,
      "pes": 3314,
      "pal": 3315,
      "pow": 3316,
      "pop": 3317,
      "pump": 3318,
      "pts": 3319,
      "pments": 3320,
      "pause": 3321,
      "ring": 3322,
      "rig": 3323,
      "rant": 3324,
      "rip": 3325,
      "range": 3326,
      "sy": 3327,
      "ses": 3328,
      "send": 3329,
      "sess": 3330,
      "slack": 3331,
      "side": 3332,
      "stop": 3333,
      "sourc": 3334,
      "swo": 3335,
      "sectors": 3336,
      "tru": 3337,
      "tren": 3338,
      "tty": 3339,
      "uation": 3340,
      "uble": 3341,
      "vis": 3342,
      "vol": 3343,
      "valu": 3344,
      "vice": 3345,
      "wan": 3346,
      "won": 3347,
      "wide": 3348,
      "wart": 3349,
      "xoSm": 3350,
      "yl": 3351,
      "yer": 3352,
      "york": 3353,
      "za": 3354,
      "ze": 3355,
      "zer": 3356,
      "zil": 3357,
      "zza": 3358,
      "ane": 3359,
      "anwhile": 3360,
      "answ": 3361,
      "annu": 3362,
      "industr": 3363,
      "innovation": 3364,
      "invol": 3365,
      "ert": 3366,
      "ery": 3367,
      "erce": 3368,
      "eration": 3369,
      "argu": 3370,
      "aries": 3371,
      "arity": 3372,
      "thr": 3373,
      "through": 3374,
      "oric": 3375,
      "orient": 3376,
      "escal": 3377,
      "ont": 3378,
      "only": 3379,
      "allow": 3380,
      "ality": 3381,
      "already": 3382,
      "toge": 3383,
      "total": 3384,
      "rel": 3385,
      "rey": 3386,
      "renew": 3387,
      "requ": 3388,
      "reds": 3389,
      "react": 3390,
      "reper": 3391,
      "reme": 3392,
      "retal": 3393,
      "reauthor": 3394,
      "rehire": 3395,
      "regular": 3396,
      "reminder": 3397,
      "atr": 3398,
      "attle": 3399,
      "ety": 3400,
      "etitor": 3401,
      "ency": 3402,
      "ensure": 3403,
      "enforcing": 3404,
      "ism": 3405,
      "ising": 3406,
      "cked": 3407,
      "ommend": 3408,
      "ides": 3409,
      "uple": 3410,
      "upgrad": 3411,
      "edings": 3412,
      "roll": 3413,
      "rout": 3414,
      "icer": 3415,
      "icult": 3416,
      "icago": 3417,
      "held": 3418,
      "heav": 3419,
      "loat": 3420,
      "losur": 3421,
      "lopments": 3422,
      "legis": 3423,
      "story": 3424,
      "stale": 3425,
      "store": 3426,
      "standard": 3427,
      "standing": 3428,
      "Banking": 3429,
      "ller": 3430,
      "arked": 3431,
      "gust": 3432,
      "gures": 3433,
      "guiding": 3434,
      "latives": 3435,
      "ioned": 3436,
      "forec": 3437,
      "allen": 3438,
      "alliance": 3439,
      "ecure": 3440,
      "urgen": 3441,
      "urges": 3442,
      "gulation": 3443,
      "ceiling": 3444,
      "ceedings": 3445,
      "State": 3446,
      "Start": 3447,
      "Struct": 3448,
      "comes": 3449,
      "common": 3450,
      "harm": 3451,
      "Int": 3452,
      "Intro": 3453,
      "Institutions": 3454,
      "Insiders": 3455,
      "Joint": 3456,
      "Joins": 3457,
      "Real": 3458,
      "Reject": 3459,
      "Remarks": 3460,
      "Relatives": 3461,
      "regulates": 3462,
      "unk": 3463,
      "unions": 3464,
      "ctor": 3465,
      "ched": 3466,
      "chain": 3467,
      "chmark": 3468,
      "challen": 3469,
      "aders": 3470,
      "newest": 3471,
      "tering": 3472,
      "math": 3473,
      "oot": 3474,
      "velopments": 3475,
      "laud": 3476,
      "lagging": 3477,
      "ilipp": 3478,
      "ithKline": 3479,
      "sex": 3480,
      "several": 3481,
      "season": 3482,
      "entire": 3483,
      "entrant": 3484,
      "impl": 3485,
      "impression": 3486,
      "ategy": 3487,
      "noon": 3488,
      "note": 3489,
      "project": 3490,
      "protect": 3491,
      "proceedings": 3492,
      "Chair": 3493,
      "Chicago": 3494,
      "strategy": 3495,
      "banker": 3496,
      "exist": 3497,
      "expensive": 3498,
      "beer": 3499,
      "Web": 3500,
      "oper": 3501,
      "opharma": 3502,
      "aff": 3503,
      "afloat": 3504,
      "usual": 3505,
      "oking": 3506,
      "couple": 3507,
      "production": 3508,
      "Expensive": 3509,
      "Regulated": 3510,
      "Resign": 3511,
      "Research": 3512,
      "SEE": 3513,
      "quart": 3514,
      "quick": 3515,
      "tainted": 3516,
      "output": 3517,
      "aftermath": 3518,
      "afternoon": 3519,
      "balance": 3520,
      "dead": 3521,
      "delay": 3522,
      "defic": 3523,
      "developments": 3524,
      "mpt": 3525,
      "cloud": 3526,
      "tee": 3527,
      "tells": 3528,
      "tempt": 3529,
      "hasn": 3530,
      "mentioned": 3531,
      "economist": 3532,
      "front": 3533,
      "life": 3534,
      "bigger": 3535,
      "lowest": 3536,
      "opening": 3537,
      "considers": 3538,
      "izes": 3539,
      "izing": 3540,
      "ized": 3541,
      "hai": 3542,
      "Cox": 3543,
      "Cogen": 3544,
      "Could": 3545,
      "mous": 3546,
      "moderna": 3547,
      "moves": 3548,
      "GET": 3549,
      "Role": 3550,
      "Come": 3551,
      "Commodities": 3552,
      "abys": 3553,
      "suff": 3554,
      "success": 3555,
      "summ": 3556,
      "surged": 3557,
      "vidence": 3558,
      "ples": 3559,
      "asters": 3560,
      "jobless": 3561,
      "firmer": 3562,
      "firmed": 3563,
      "BusinessWeek": 3564,
      "Businessmen": 3565,
      "ards": 3566,
      "increased": 3567,
      "Demo": 3568,
      "Depression": 3569,
      "former": 3570,
      "forming": 3571,
      "aced": 3572,
      "access": 3573,
      "account": 3574,
      "Paypal": 3575,
      "activity": 3576,
      "aking": 3577,
      "buyback": 3578,
      "grows": 3579,
      "boosts": 3580,
      "governance": 3581,
      "France": 3582,
      "gained": 3583,
      "reviv": 3584,
      "Union": 3585,
      "Uncerta": 3586,
      "class": 3587,
      "clarity": 3588,
      "indices": 3589,
      "resc": 3590,
      "resign": 3591,
      "resale": 3592,
      "resurgen": 3593,
      "when": 3594,
      "clean": 3595,
      "Three": 3596,
      "Threat": 3597,
      "larger": 3598,
      "giants": 3599,
      "doing": 3600,
      "pharmaceuticals": 3601,
      "Moving": 3602,
      "Risk": 3603,
      "emens": 3604,
      "SECON": 3605,
      "See": 3606,
      "Seen": 3607,
      "Seattle": 3608,
      "decide": 3609,
      "deciding": 3610,
      "undreds": 3611,
      "ECN": 3612,
      "planned": 3613,
      "ERN": 3614,
      "issuance": 3615,
      "12th": 3616,
      "ifies": 3617,
      "ifications": 3618,
      "trig": 3619,
      "March": 3620,
      "Indicators": 3621,
      "wait": 3622,
      "selloff": 3623,
      "IMPORT": 3624,
      "sag": 3625,
      "Monetary": 3626,
      "mean": 3627,
      "meas": 3628,
      "Americans": 3629,
      "Economic": 3630,
      "2012": 3631,
      "2011": 3632,
      "2017": 3633,
      "final": 3634,
      "finity": 3635,
      "seeing": 3636,
      "predic": 3637,
      "pretty": 3638,
      "Commerce": 3639,
      "Technolog": 3640,
      "Why": 3641,
      "reeling": 3642,
      "bets": 3643,
      "betting": 3644,
      "founder": 3645,
      "slapped": 3646,
      "Begin": 3647,
      "Beij": 3648,
      "Ford": 3649,
      "Forbes": 3650,
      "drugs": 3651,
      "11bn": 3652,
      "Schwart": 3653,
      "launched": 3654,
      "climate": 3655,
      "numbers": 3656,
      "chiefs": 3657,
      "contract": 3658,
      "calls": 3659,
      "spill": 3660,
      "spending": 3661,
      "sparked": 3662,
      "signed": 3663,
      "policymakers": 3664,
      "80M": 3665,
      "EXXON": 3666,
      "curb": 3667,
      "curve": 3668,
      "evin": 3669,
      "medic": 3670,
      "tying": 3671,
      "investments": 3672,
      "Decade": 3673,
      "Drops": 3674,
      "Should": 3675,
      "Shang": 3676,
      "Short": 3677,
      "awash": 3678,
      "brand": 3679,
      "fail": 3680,
      "fair": 3681,
      "famous": 3682,
      "fee": 3683,
      "warn": 3684,
      "reassess": 3685,
      "helm": 3686,
      "modest": 3687,
      "Falling": 3688,
      "aging": 3689,
      "agree": 3690,
      "tumbles": 3691,
      "Weekly": 3692,
      "ramifications": 3693,
      "Closer": 3694,
      "Closed": 3695,
      "Getty": 3696,
      "NCERN": 3697,
      "crunch": 3698,
      "cartel": 3699,
      "sleeps": 3700,
      "turnaround": 3701,
      "GSLV": 3702,
      "Lawmakers": 3703,
      "Lawyer": 3704,
      "Pod": 3705,
      "Post": 3706,
      "Recall": 3707,
      "Recent": 3708,
      "Recommend": 3709,
      "guidelines": 3710,
      "must": 3711,
      "mulling": 3712,
      "Rule": 3713,
      "slashed": 3714,
      "Legis": 3715,
      "Leads": 3716,
      "Leaders": 3717,
      "redouble": 3718,
      "reached": 3719,
      "risingly": 3720,
      "countries": 3721,
      "appoints": 3722,
      "currency": 3723,
      "Official": 3724,
      "Withdra": 3725,
      "picking": 3726,
      "eye": 3727,
      "historic": 3728,
      "insurers": 3729,
      "Revenue": 3730,
      "examine": 3731,
      "acquire": 3732,
      "Seeking": 3733,
      "unveiled": 3734,
      "70bn": 3735,
      "Bond": 3736,
      "Negative": 3737,
      "following": 3738,
      "hurts": 3739,
      "listed": 3740,
      "pted": 3741,
      "swiss": 3742,
      "trouble": 3743,
      "compared": 3744,
      "competition": 3745,
      "competitor": 3746,
      "advanc": 3747,
      "conference": 3748,
      "consumers": 3749,
      "cussions": 3750,
      "evaluation": 3751,
      "CONCERN": 3752,
      "Calls": 3753,
      "Generation": 3754,
      "averaging": 3755,
      "awaited": 3756,
      "election": 3757,
      "fastest": 3758,
      "rethinks": 3759,
      "rethinking": 3760,
      "enacts": 3761,
      "Invents": 3762,
      "govt": 3763,
      "happened": 3764,
      "effective": 3765,
      "tightened": 3766,
      "August": 3767,
      "Carney": 3768,
      "FBI": 3769,
      "MSNBC": 3770,
      "McG": 3771,
      "Spain": 3772,
      "avit": 3773,
      "border": 3774,
      "battery": 3775,
      "double": 3776,
      "doubt": 3777,
      "doubling": 3778,
      "funds": 3779,
      "senate": 3780,
      "senior": 3781,
      "snag": 3782,
      "snagging": 3783,
      "yours": 3784,
      "forced": 3785,
      "Inside": 3786,
      "Reliability": 3787,
      "promising": 3788,
      "prompted": 3789,
      "shows": 3790,
      "payouts": 3791,
      "Quarterly": 3792,
      "Brother": 3793,
      "Charges": 3794,
      "Disrupt": 3795,
      "Going": 3796,
      "Meanwhile": 3797,
      "Peak": 3798,
      "Plus": 3799,
      "Silver": 3800,
      "Software": 3801,
      "benchmark": 3802,
      "bracing": 3803,
      "breaks": 3804,
      "ibm": 3805,
      "ibility": 3806,
      "letting": 3807,
      "passed": 3808,
      "pushing": 3809,
      "running": 3810,
      "snare": 3811,
      "snatch": 3812,
      "manufacturing": 3813,
      "Consumer": 3814,
      "Articles": 3815,
      "CSFB": 3816,
      "Gains": 3817,
      "MBA": 3818,
      "Peter": 3819,
      "Petro": 3820,
      "Return": 3821,
      "blame": 3822,
      "blamed": 3823,
      "cliff": 3824,
      "clients": 3825,
      "dream": 3826,
      "players": 3827,
      "inventories": 3828,
      "attract": 3829,
      "Release": 3830,
      "Released": 3831,
      "Remains": 3832,
      "adopt": 3833,
      "experts": 3834,
      "shutdown": 3835,
      "consecutive": 3836,
      "Model": 3837,
      "Forecasts": 3838,
      "bringing": 3839,
      "automaker": 3840,
      "prospects": 3841,
      "Medicines": 3842,
      "Against": 3843,
      "Build": 3844,
      "Bitcoin": 3845,
      "Banco": 3846,
      "Crunch": 3847,
      "Central": 3848,
      "Direction": 3849,
      "ETS": 3850,
      "Founder": 3851,
      "GNI": 3852,
      "HANDI": 3853,
      "OVE": 3854,
      "Panama": 3855,
      "Slid": 3856,
      "Supreme": 3857,
      "Sugar": 3858,
      "TARGET": 3859,
      "Workers": 3860,
      "agency": 3861,
      "critic": 3862,
      "digit": 3863,
      "difficult": 3864,
      "named": 3865,
      "patent": 3866,
      "rushed": 3867,
      "situation": 3868,
      "speech": 3869,
      "orders": 3870,
      "organization": 3871,
      "reaffirmed": 3872,
      "relief": 3873,
      "rewrite": 3874,
      "leaves": 3875,
      "Increasing": 3876,
      "vehicles": 3877,
      "corporations": 3878,
      "Competition": 3879,
      "abounds": 3880,
      "reshapes": 3881,
      "Reportedly": 3882,
      "Committee": 3883,
      "tycoon": 3884,
      "lawsuit": 3885,
      "implement": 3886,
      "continues": 3887,
      "engineers": 3888,
      "prosecutors": 3889,
      "McCain": 3890,
      "Surprise": 3891,
      "Plans": 3892,
      "benefits": 3893,
      "pursue": 3894,
      "manufacturer": 3895,
      "accelerated": 3896,
      "Associated": 3897,
      "Congress": 3898,
      "spotlight": 3899,
      "Axis": 3900,
      "Blank": 3901,
      "Bernank": 3902,
      "Brazil": 3903,
      "CIA": 3904,
      "Equity": 3905,
      "ENERGY": 3906,
      "GlaxoSm": 3907,
      "Images": 3908,
      "July": 3909,
      "Jonathan": 3910,
      "James": 3911,
      "Lasseter": 3912,
      "Martin": 3913,
      "MERCHANDI": 3914,
      "NPR": 3915,
      "North": 3916,
      "OPEC": 3917,
      "Paul": 3918,
      "Purchase": 3919,
      "Piazza": 3920,
      "Robert": 3921,
      "Siemens": 3922,
      "Soaring": 3923,
      "Sprint": 3924,
      "Squibb": 3925,
      "Sweet": 3926,
      "Source": 3927,
      "Switzer": 3928,
      "Team": 3929,
      "Twain": 3930,
      "Turkey": 3931,
      "Towards": 3932,
      "Tulsa": 3933,
      "Virgin": 3934,
      "Xiao": 3935,
      "aforementioned": 3936,
      "biopharma": 3937,
      "barrel": 3938,
      "cites": 3939,
      "cancer": 3940,
      "deter": 3941,
      "drafting": 3942,
      "dwindling": 3943,
      "employers": 3944,
      "figures": 3945,
      "fying": 3946,
      "fading": 3947,
      "hopes": 3948,
      "hours": 3949,
      "iBooks": 3950,
      "normal": 3951,
      "parent": 3952,
      "powers": 3953,
      "popular": 3954,
      "pumped": 3955,
      "sourcing": 3956,
      "trucks": 3957,
      "answers": 3958,
      "annual": 3959,
      "industries": 3960,
      "oriented": 3961,
      "escalating": 3962,
      "allowing": 3963,
      "together": 3964,
      "repercussions": 3965,
      "retali": 3966,
      "upgraded": 3967,
      "heavy": 3968,
      "losures": 3969,
      "foreclosures": 3970,
      "Introduce": 3971,
      "Rejects": 3972,
      "ilippines": 3973,
      "implications": 3974,
      "existing": 3975,
      "quarters": 3976,
      "deficit": 3977,
      "abysmal": 3978,
      "summary": 3979,
      "resurgence": 3980,
      "SECOND": 3981,
      "IMPORTANT": 3982,
      "predicting": 3983,
      "Technologies": 3984,
      "Beijing": 3985,
      "Schwartz": 3986,
      "Shanghai": 3987,
      "Legislation": 3988,
      "Officials": 3989,
      "Withdraw": 3990,
      "Bernanke": 3991,
      "GlaxoSmithKline": 3992,
      "MERCHANDISE": 3993,
      "Switzerland": 3994
    },
    "merges": [
      [
        "a",
        "n"
      ],
      [
        "i",
        "n"
      ],
      [
        "e",
        "r"
      ],
      [
        "a",
        "r"
      ],
      [
        "t",
        "h"
      ],
      [
        "o",
        "r"
      ],
      [
        "e",
        "s"
      ],
      [
        "o",
        "n"
      ],
      [
        "a",
        "l"
      ],
      [
        "t",
        "o"
      ],
      [
        "r",
        "e"
      ],
      [
        "th",
        "e"
      ],
      [
        "o",
        "f"
      ],
      [
        "a",
        "t"
      ],
      [
        "in",
        "g"
      ],
      [
        "e",
        "t"
      ],
      [
        "e",
        "n"
      ],
      [
        "i",
        "s"
      ],
      [
        "i",
        "t"
      ],
      [
        "c",
        "k"
      ],
      [
        "o",
        "m"
      ],
      [
        "i",
        "d"
      ],
      [
        "u",
        "p"
      ],
      [
        "an",
        "k"
      ],
      [
        "e",
        "d"
      ],
      [
        "a",
        "y"
      ],
      [
        "r",
        "o"
      ],
      [
        "i",
        "c"
      ],
      [
        "h",
        "e"
      ],
      [
        "l",
        "o"
      ],
      [
        "l",
        "e"
      ],
      [
        "e",
        "w"
      ],
      [
        "an",
        "d"
      ],
      [
        "s",
        "t"
      ],
      [
        "B",
        "ank"
      ],
      [
        "l",
        "l"
      ],
      [
        "u",
        "t"
      ],
      [
        "ar",
        "k"
      ],
      [
        "g",
        "u"
      ],
      [
        "to",
        "ck"
      ],
      [
        "er",
        "g"
      ],
      [
        "ark",
        "et"
      ],
      [
        "P",
        "O"
      ],
      [
        "I",
        "PO"
      ],
      [
        "l",
        "at"
      ],
      [
        "i",
        "on"
      ],
      [
        "f",
        "or"
      ],
      [
        "ar",
        "e"
      ],
      [
        "al",
        "l"
      ],
      [
        "a",
        "s"
      ],
      [
        "e",
        "c"
      ],
      [
        "r",
        "up"
      ],
      [
        "rup",
        "t"
      ],
      [
        "rupt",
        "c"
      ],
      [
        "u",
        "r"
      ],
      [
        "i",
        "v"
      ],
      [
        "e",
        "ar"
      ],
      [
        "gu",
        "lat"
      ],
      [
        "ruptc",
        "y"
      ],
      [
        "T",
        "he"
      ],
      [
        "U",
        "S"
      ],
      [
        "i",
        "g"
      ],
      [
        "ing",
        "s"
      ],
      [
        "A",
        "m"
      ],
      [
        "c",
        "e"
      ],
      [
        "S",
        "t"
      ],
      [
        "c",
        "om"
      ],
      [
        "n",
        "ings"
      ],
      [
        "es",
        "t"
      ],
      [
        "of",
        "f"
      ],
      [
        "en",
        "d"
      ],
      [
        "h",
        "ar"
      ],
      [
        "tock",
        "s"
      ],
      [
        "er",
        "s"
      ],
      [
        "Bank",
        "ruptcy"
      ],
      [
        "I",
        "n"
      ],
      [
        "i",
        "ll"
      ],
      [
        "re",
        "et"
      ],
      [
        "St",
        "reet"
      ],
      [
        "J",
        "o"
      ],
      [
        "W",
        "all"
      ],
      [
        "m",
        "arket"
      ],
      [
        "R",
        "e"
      ],
      [
        "re",
        "gulat"
      ],
      [
        "iv",
        "id"
      ],
      [
        "ivid",
        "end"
      ],
      [
        "p",
        "an"
      ],
      [
        "N",
        "ew"
      ],
      [
        "u",
        "n"
      ],
      [
        "c",
        "t"
      ],
      [
        "c",
        "h"
      ],
      [
        "a",
        "d"
      ],
      [
        "p",
        "or"
      ],
      [
        "n",
        "ew"
      ],
      [
        "i",
        "al"
      ],
      [
        "t",
        "er"
      ],
      [
        "l",
        "ay"
      ],
      [
        "or",
        "s"
      ],
      [
        "m",
        "a"
      ],
      [
        "ear",
        "nings"
      ],
      [
        "o",
        "w"
      ],
      [
        "o",
        "o"
      ],
      [
        "m",
        "erg"
      ],
      [
        "com",
        "pan"
      ],
      [
        "v",
        "e"
      ],
      [
        "d",
        "u"
      ],
      [
        "off",
        "s"
      ],
      [
        "l",
        "a"
      ],
      [
        "i",
        "l"
      ],
      [
        "d",
        "ividend"
      ],
      [
        "g",
        "e"
      ],
      [
        "p",
        "p"
      ],
      [
        "por",
        "t"
      ],
      [
        "M",
        "arket"
      ],
      [
        "i",
        "th"
      ],
      [
        "har",
        "es"
      ],
      [
        "an",
        "c"
      ],
      [
        "F",
        "ed"
      ],
      [
        "g",
        "o"
      ],
      [
        "or",
        "k"
      ],
      [
        "w",
        "ith"
      ],
      [
        "in",
        "anc"
      ],
      [
        "inanc",
        "ial"
      ],
      [
        "l",
        "d"
      ],
      [
        "lay",
        "offs"
      ],
      [
        "s",
        "e"
      ],
      [
        "i",
        "r"
      ],
      [
        "en",
        "t"
      ],
      [
        "r",
        "is"
      ],
      [
        "it",
        "s"
      ],
      [
        "er",
        "ic"
      ],
      [
        "i",
        "m"
      ],
      [
        "Am",
        "eric"
      ],
      [
        "at",
        "e"
      ],
      [
        "S",
        "tocks"
      ],
      [
        "v",
        "er"
      ],
      [
        "k",
        "e"
      ],
      [
        "n",
        "o"
      ],
      [
        "compan",
        "y"
      ],
      [
        "re",
        "port"
      ],
      [
        "A",
        "pp"
      ],
      [
        "p",
        "ro"
      ],
      [
        "i",
        "es"
      ],
      [
        "an",
        "ce"
      ],
      [
        "App",
        "le"
      ],
      [
        "M",
        "or"
      ],
      [
        "Americ",
        "a"
      ],
      [
        "du",
        "ct"
      ],
      [
        "Y",
        "ork"
      ],
      [
        "al",
        "th"
      ],
      [
        "ig",
        "h"
      ],
      [
        "C",
        "h"
      ],
      [
        "st",
        "r"
      ],
      [
        "p",
        "r"
      ],
      [
        "ur",
        "n"
      ],
      [
        "g",
        "an"
      ],
      [
        "0",
        "0"
      ],
      [
        "Market",
        "s"
      ],
      [
        "Mor",
        "gan"
      ],
      [
        "v",
        "est"
      ],
      [
        "b",
        "ank"
      ],
      [
        "ec",
        "t"
      ],
      [
        "e",
        "x"
      ],
      [
        "er",
        "al"
      ],
      [
        "n",
        "s"
      ],
      [
        "s",
        "hares"
      ],
      [
        "of",
        "t"
      ],
      [
        "Jo",
        "urn"
      ],
      [
        "Journ",
        "al"
      ],
      [
        "b",
        "e"
      ],
      [
        "D",
        "A"
      ],
      [
        "s",
        "oft"
      ],
      [
        "s",
        "tocks"
      ],
      [
        "F",
        "inancial"
      ],
      [
        "W",
        "e"
      ],
      [
        "o",
        "p"
      ],
      [
        "a",
        "f"
      ],
      [
        "l",
        "y"
      ],
      [
        "M",
        "ic"
      ],
      [
        "u",
        "s"
      ],
      [
        "Mic",
        "ro"
      ],
      [
        "o",
        "k"
      ],
      [
        "Micro",
        "soft"
      ],
      [
        "merg",
        "e"
      ],
      [
        "G",
        "oo"
      ],
      [
        "Jo",
        "h"
      ],
      [
        "c",
        "o"
      ],
      [
        "Fed",
        "eral"
      ],
      [
        "vest",
        "ors"
      ],
      [
        "lo",
        "ok"
      ],
      [
        "s",
        "ay"
      ],
      [
        "g",
        "le"
      ],
      [
        "pro",
        "duct"
      ],
      [
        "Goo",
        "gle"
      ],
      [
        "r",
        "a"
      ],
      [
        "E",
        "x"
      ],
      [
        "Re",
        "gulat"
      ],
      [
        "ns",
        "on"
      ],
      [
        "Joh",
        "nson"
      ],
      [
        "R",
        "es"
      ],
      [
        "S",
        "E"
      ],
      [
        "J",
        "P"
      ],
      [
        "q",
        "u"
      ],
      [
        "on",
        "g"
      ],
      [
        "regulat",
        "ion"
      ],
      [
        "id",
        "ance"
      ],
      [
        "ll",
        "s"
      ],
      [
        "as",
        "e"
      ],
      [
        "t",
        "a"
      ],
      [
        "or",
        "y"
      ],
      [
        "o",
        "ut"
      ],
      [
        "ro",
        "up"
      ],
      [
        "ec",
        "on"
      ],
      [
        "JP",
        "Morgan"
      ],
      [
        "c",
        "are"
      ],
      [
        "es",
        "s"
      ],
      [
        "F",
        "ar"
      ],
      [
        "U",
        "p"
      ],
      [
        "We",
        "lls"
      ],
      [
        "Far",
        "go"
      ],
      [
        "af",
        "ter"
      ],
      [
        "ow",
        "n"
      ],
      [
        "d",
        "ay"
      ],
      [
        "f",
        "ir"
      ],
      [
        "ill",
        "ion"
      ],
      [
        "s",
        "tock"
      ],
      [
        "erg",
        "y"
      ],
      [
        "un",
        "c"
      ],
      [
        "ar",
        "nings"
      ],
      [
        "o",
        "b"
      ],
      [
        "C",
        "it"
      ],
      [
        "b",
        "al"
      ],
      [
        "d",
        "e"
      ],
      [
        "E",
        "arnings"
      ],
      [
        "d",
        "own"
      ],
      [
        "lo",
        "bal"
      ],
      [
        "Am",
        "id"
      ],
      [
        "er",
        "ve"
      ],
      [
        "m",
        "p"
      ],
      [
        "say",
        "s"
      ],
      [
        "b",
        "ut"
      ],
      [
        "Res",
        "erve"
      ],
      [
        "c",
        "lo"
      ],
      [
        "gu",
        "idance"
      ],
      [
        "ig",
        "roup"
      ],
      [
        "Cit",
        "igroup"
      ],
      [
        "c",
        "or"
      ],
      [
        "w",
        "e"
      ],
      [
        "y",
        "ear"
      ],
      [
        "Ch",
        "in"
      ],
      [
        "t",
        "e"
      ],
      [
        "he",
        "alth"
      ],
      [
        "p",
        "o"
      ],
      [
        "h",
        "igh"
      ],
      [
        "an",
        "no"
      ],
      [
        "ch",
        "an"
      ],
      [
        "h",
        "as"
      ],
      [
        "bank",
        "ruptcy"
      ],
      [
        "m",
        "ent"
      ],
      [
        "lo",
        "om"
      ],
      [
        "econ",
        "om"
      ],
      [
        "S",
        "tock"
      ],
      [
        "s",
        "h"
      ],
      [
        "Chin",
        "a"
      ],
      [
        "o",
        "ld"
      ],
      [
        "f",
        "r"
      ],
      [
        "str",
        "ong"
      ],
      [
        "l",
        "i"
      ],
      [
        "report",
        "s"
      ],
      [
        "b",
        "ig"
      ],
      [
        "c",
        "re"
      ],
      [
        "w",
        "ill"
      ],
      [
        "D",
        "ow"
      ],
      [
        "r",
        "ad"
      ],
      [
        "on",
        "es"
      ],
      [
        "lo",
        "w"
      ],
      [
        "m",
        "an"
      ],
      [
        "ris",
        "e"
      ],
      [
        "b",
        "erg"
      ],
      [
        "op",
        "en"
      ],
      [
        "ec",
        "h"
      ],
      [
        "Up",
        "d"
      ],
      [
        "J",
        "ones"
      ],
      [
        "c",
        "on"
      ],
      [
        "m",
        "or"
      ],
      [
        "fr",
        "om"
      ],
      [
        "i",
        "a"
      ],
      [
        "b",
        "illion"
      ],
      [
        "f",
        "all"
      ],
      [
        "i",
        "z"
      ],
      [
        "ut",
        "ers"
      ],
      [
        "chan",
        "ge"
      ],
      [
        "Re",
        "uters"
      ],
      [
        "anno",
        "unc"
      ],
      [
        "h",
        "a"
      ],
      [
        "N",
        "A"
      ],
      [
        "e",
        "k"
      ],
      [
        "C",
        "o"
      ],
      [
        "r",
        "u"
      ],
      [
        "th",
        "at"
      ],
      [
        "merg",
        "er"
      ],
      [
        "ect",
        "or"
      ],
      [
        "M",
        "erg"
      ],
      [
        "T",
        "im"
      ],
      [
        "regulat",
        "ors"
      ],
      [
        "m",
        "o"
      ],
      [
        "it",
        "y"
      ],
      [
        "har",
        "ma"
      ],
      [
        "la",
        "ck"
      ],
      [
        "Tim",
        "es"
      ],
      [
        "G",
        "E"
      ],
      [
        "G",
        "lobal"
      ],
      [
        "R",
        "o"
      ],
      [
        "in",
        "vestors"
      ],
      [
        "C",
        "om"
      ],
      [
        "E",
        "O"
      ],
      [
        "market",
        "s"
      ],
      [
        "pr",
        "ic"
      ],
      [
        "H",
        "e"
      ],
      [
        "N",
        "Y"
      ],
      [
        "iv",
        "e"
      ],
      [
        "B",
        "lack"
      ],
      [
        "w",
        "or"
      ],
      [
        "Ex",
        "change"
      ],
      [
        "Ro",
        "ck"
      ],
      [
        "He",
        "alth"
      ],
      [
        "Black",
        "Rock"
      ],
      [
        "a",
        "b"
      ],
      [
        "a",
        "ge"
      ],
      [
        "s",
        "u"
      ],
      [
        "ro",
        "p"
      ],
      [
        "announc",
        "es"
      ],
      [
        "Merg",
        "er"
      ],
      [
        "M",
        "er"
      ],
      [
        "sh",
        "are"
      ],
      [
        "mor",
        "e"
      ],
      [
        "S",
        "DA"
      ],
      [
        "en",
        "ergy"
      ],
      [
        "Upd",
        "ate"
      ],
      [
        "NA",
        "SDA"
      ],
      [
        "NASDA",
        "Q"
      ],
      [
        "S",
        "hares"
      ],
      [
        "ar",
        "ter"
      ],
      [
        "al",
        "es"
      ],
      [
        "compan",
        "ies"
      ],
      [
        "h",
        "it"
      ],
      [
        "f",
        "inancial"
      ],
      [
        "t",
        "ech"
      ],
      [
        "on",
        "e"
      ],
      [
        "clo",
        "se"
      ],
      [
        "Mer",
        "ck"
      ],
      [
        "E",
        "n"
      ],
      [
        "in",
        "ess"
      ],
      [
        "us",
        "iness"
      ],
      [
        "T",
        "es"
      ],
      [
        "te",
        "l"
      ],
      [
        "Tes",
        "la"
      ],
      [
        "I",
        "s"
      ],
      [
        "s",
        "ur"
      ],
      [
        "v",
        "id"
      ],
      [
        "ic",
        "al"
      ],
      [
        "new",
        "s"
      ],
      [
        "qu",
        "arter"
      ],
      [
        "B",
        "loom"
      ],
      [
        "o",
        "ver"
      ],
      [
        "p",
        "l"
      ],
      [
        "p",
        "ect"
      ],
      [
        "In",
        "tel"
      ],
      [
        "Bloom",
        "berg"
      ],
      [
        "B",
        "P"
      ],
      [
        "a",
        "st"
      ],
      [
        "j",
        "ob"
      ],
      [
        "ion",
        "s"
      ],
      [
        "du",
        "str"
      ],
      [
        "In",
        "vestors"
      ],
      [
        "fir",
        "m"
      ],
      [
        "i",
        "le"
      ],
      [
        "regulat",
        "ory"
      ],
      [
        "D",
        "ividend"
      ],
      [
        "N",
        "vid"
      ],
      [
        "g",
        "en"
      ],
      [
        "Nvid",
        "ia"
      ],
      [
        "B",
        "usiness"
      ],
      [
        "a",
        "ch"
      ],
      [
        "an",
        "t"
      ],
      [
        "in",
        "t"
      ],
      [
        "ro",
        "w"
      ],
      [
        "for",
        "ce"
      ],
      [
        "ha",
        "ve"
      ],
      [
        "u",
        "y"
      ],
      [
        "ar",
        "d"
      ],
      [
        "ma",
        "k"
      ],
      [
        "T",
        "E"
      ],
      [
        "l",
        "t"
      ],
      [
        "p",
        "harma"
      ],
      [
        "in",
        "cre"
      ],
      [
        "b",
        "y"
      ],
      [
        "d",
        "er"
      ],
      [
        "s",
        "ector"
      ],
      [
        "u",
        "m"
      ],
      [
        "econom",
        "y"
      ],
      [
        "wor",
        "ld"
      ],
      [
        "D",
        "e"
      ],
      [
        "d",
        "it"
      ],
      [
        "o",
        "il"
      ],
      [
        "s",
        "l"
      ],
      [
        "y",
        "ers"
      ],
      [
        "at",
        "es"
      ],
      [
        "DA",
        "TE"
      ],
      [
        "P",
        "r"
      ],
      [
        "P",
        "DATE"
      ],
      [
        "U",
        "PDATE"
      ],
      [
        "a",
        "in"
      ],
      [
        "th",
        "an"
      ],
      [
        "ra",
        "is"
      ],
      [
        "fir",
        "st"
      ],
      [
        "S",
        "ales"
      ],
      [
        "for",
        "m"
      ],
      [
        "P",
        "f"
      ],
      [
        "u",
        "re"
      ],
      [
        "y",
        "st"
      ],
      [
        "th",
        "er"
      ],
      [
        "de",
        "al"
      ],
      [
        "iz",
        "er"
      ],
      [
        "Pf",
        "izer"
      ],
      [
        ".",
        "."
      ],
      [
        "B",
        "ris"
      ],
      [
        "a",
        "c"
      ],
      [
        "to",
        "l"
      ],
      [
        "Sales",
        "force"
      ],
      [
        "Bris",
        "tol"
      ],
      [
        "G",
        "old"
      ],
      [
        "a",
        "z"
      ],
      [
        "j",
        "or"
      ],
      [
        "s",
        "s"
      ],
      [
        "t",
        "rad"
      ],
      [
        "igh",
        "t"
      ],
      [
        "product",
        "s"
      ],
      [
        "Regulat",
        "ory"
      ],
      [
        "out",
        "look"
      ],
      [
        "mp",
        "lo"
      ],
      [
        "cor",
        "d"
      ],
      [
        "Gold",
        "man"
      ],
      [
        "F",
        "T"
      ],
      [
        "M",
        "yers"
      ],
      [
        "d",
        "s"
      ],
      [
        "f",
        "il"
      ],
      [
        "Am",
        "gen"
      ],
      [
        "Am",
        "az"
      ],
      [
        "ma",
        "jor"
      ],
      [
        "ex",
        "pect"
      ],
      [
        "Amaz",
        "on"
      ],
      [
        "ut",
        "ical"
      ],
      [
        "ce",
        "utical"
      ],
      [
        "ill",
        "y"
      ],
      [
        "NY",
        "SE"
      ],
      [
        "mplo",
        "y"
      ],
      [
        "L",
        "illy"
      ],
      [
        "P",
        "ay"
      ],
      [
        "o",
        "u"
      ],
      [
        "incre",
        "ase"
      ],
      [
        "is",
        "t"
      ],
      [
        "id",
        "e"
      ],
      [
        "In",
        "c"
      ],
      [
        "Ch",
        "ase"
      ],
      [
        "a",
        "ke"
      ],
      [
        "e",
        "p"
      ],
      [
        "lat",
        "est"
      ],
      [
        "1",
        "00"
      ],
      [
        "M",
        "ob"
      ],
      [
        "a",
        "ct"
      ],
      [
        "e",
        "mploy"
      ],
      [
        "por",
        "ate"
      ],
      [
        "E",
        "li"
      ],
      [
        "a",
        "k"
      ],
      [
        "b",
        "uy"
      ],
      [
        "g",
        "row"
      ],
      [
        "l",
        "in"
      ],
      [
        "o",
        "ur"
      ],
      [
        "no",
        "t"
      ],
      [
        "high",
        "er"
      ],
      [
        "a",
        "m"
      ],
      [
        "b",
        "oo"
      ],
      [
        "p",
        "it"
      ],
      [
        "he",
        "ll"
      ],
      [
        "we",
        "ek"
      ],
      [
        "P",
        "ro"
      ],
      [
        "g",
        "est"
      ],
      [
        "x",
        "on"
      ],
      [
        "New",
        "s"
      ],
      [
        "oo",
        "d"
      ],
      [
        "cor",
        "porate"
      ],
      [
        "En",
        "ergy"
      ],
      [
        "Mob",
        "il"
      ],
      [
        "xon",
        "Mobil"
      ],
      [
        "S",
        "hell"
      ],
      [
        "e",
        "es"
      ],
      [
        "go",
        "ver"
      ],
      [
        "Ex",
        "xonMobil"
      ],
      [
        "gover",
        "n"
      ],
      [
        "F",
        "r"
      ],
      [
        "P",
        "h"
      ],
      [
        "S",
        "ach"
      ],
      [
        "g",
        "et"
      ],
      [
        "o",
        "t"
      ],
      [
        "om",
        "e"
      ],
      [
        "ma",
        "ke"
      ],
      [
        "dividend",
        "s"
      ],
      [
        "Sach",
        "s"
      ],
      [
        "C",
        "EO"
      ],
      [
        "g",
        "ain"
      ],
      [
        "r",
        "on"
      ],
      [
        "ar",
        "t"
      ],
      [
        "re",
        "v"
      ],
      [
        "U",
        "n"
      ],
      [
        "b",
        "a"
      ],
      [
        "c",
        "ut"
      ],
      [
        "e",
        "f"
      ],
      [
        "is",
        "co"
      ],
      [
        "pr",
        "of"
      ],
      [
        "ab",
        "out"
      ],
      [
        "FT",
        "SE"
      ],
      [
        "govern",
        "ment"
      ],
      [
        "c",
        "l"
      ],
      [
        "in",
        "d"
      ],
      [
        "regulation",
        "s"
      ],
      [
        "r",
        "es"
      ],
      [
        "at",
        "ion"
      ],
      [
        "econom",
        "ic"
      ],
      [
        "b",
        "o"
      ],
      [
        "s",
        "et"
      ],
      [
        "5",
        "00"
      ],
      [
        "C",
        "isco"
      ],
      [
        "P",
        "al"
      ],
      [
        "w",
        "h"
      ],
      [
        "id",
        "ay"
      ],
      [
        "le",
        "y"
      ],
      [
        "IPO",
        "s"
      ],
      [
        "Pay",
        "Pal"
      ],
      [
        "c",
        "le"
      ],
      [
        "i",
        "re"
      ],
      [
        "u",
        "d"
      ],
      [
        "be",
        "en"
      ],
      [
        "pric",
        "es"
      ],
      [
        "dustr",
        "ial"
      ],
      [
        "Pro",
        "duct"
      ],
      [
        "Fr",
        "iday"
      ],
      [
        "B",
        "C"
      ],
      [
        "T",
        "h"
      ],
      [
        "i",
        "p"
      ],
      [
        "l",
        "ar"
      ],
      [
        "l",
        "es"
      ],
      [
        "employ",
        "ees"
      ],
      [
        "grow",
        "th"
      ],
      [
        "L",
        "ay"
      ],
      [
        "g",
        "i"
      ],
      [
        "g",
        "ood"
      ],
      [
        "u",
        "g"
      ],
      [
        "w",
        "ork"
      ],
      [
        "trad",
        "ing"
      ],
      [
        "Lay",
        "offs"
      ],
      [
        "gi",
        "ant"
      ],
      [
        "T",
        "rad"
      ],
      [
        "W",
        "S"
      ],
      [
        "b",
        "on"
      ],
      [
        "d",
        "o"
      ],
      [
        "g",
        "lobal"
      ],
      [
        "an",
        "ley"
      ],
      [
        "es",
        "pit"
      ],
      [
        "it",
        "ed"
      ],
      [
        "lo",
        "ss"
      ],
      [
        "St",
        "anley"
      ],
      [
        "ver",
        "age"
      ],
      [
        "ta",
        "ke"
      ],
      [
        "clo",
        "s"
      ],
      [
        "pric",
        "e"
      ],
      [
        "pharma",
        "ceutical"
      ],
      [
        "espit",
        "e"
      ],
      [
        "M",
        "o"
      ],
      [
        "R",
        "is"
      ],
      [
        "a",
        "ce"
      ],
      [
        "b",
        "le"
      ],
      [
        "e",
        "m"
      ],
      [
        "t",
        "ing"
      ],
      [
        "as",
        "h"
      ],
      [
        "SE",
        "C"
      ],
      [
        "WS",
        "J"
      ],
      [
        "n",
        "a"
      ],
      [
        "o",
        "l"
      ],
      [
        "p",
        "er"
      ],
      [
        "re",
        "cord"
      ],
      [
        "f",
        "ut"
      ],
      [
        "es",
        "day"
      ],
      [
        "expect",
        "ed"
      ],
      [
        "Un",
        "ited"
      ],
      [
        "C",
        "on"
      ],
      [
        "O",
        "ra"
      ],
      [
        "g",
        "t"
      ],
      [
        "ear",
        "ly"
      ],
      [
        "job",
        "s"
      ],
      [
        "Ora",
        "cle"
      ],
      [
        "b",
        "er"
      ],
      [
        "the",
        "ir"
      ],
      [
        "ruptc",
        "ies"
      ],
      [
        "im",
        "e"
      ],
      [
        "ta",
        "k"
      ],
      [
        "po",
        "s"
      ],
      [
        "S",
        "e"
      ],
      [
        "d",
        "ec"
      ],
      [
        "m",
        "on"
      ],
      [
        "in",
        "ter"
      ],
      [
        "un",
        "d"
      ],
      [
        "Pr",
        "of"
      ],
      [
        "fil",
        "ing"
      ],
      [
        "E",
        "C"
      ],
      [
        "a",
        "pp"
      ],
      [
        "g",
        "es"
      ],
      [
        "r",
        "ates"
      ],
      [
        "er",
        "ta"
      ],
      [
        "le",
        "ct"
      ],
      [
        "report",
        "ed"
      ],
      [
        "E",
        "u"
      ],
      [
        "m",
        "ay"
      ],
      [
        "Re",
        "port"
      ],
      [
        "rop",
        "e"
      ],
      [
        "pl",
        "an"
      ],
      [
        "Eu",
        "rope"
      ],
      [
        "E",
        "R"
      ],
      [
        "E",
        "S"
      ],
      [
        "d",
        "rop"
      ],
      [
        "s",
        "har"
      ],
      [
        "s",
        "ome"
      ],
      [
        "al",
        "yst"
      ],
      [
        "to",
        "p"
      ],
      [
        "is",
        "su"
      ],
      [
        "he",
        "ad"
      ],
      [
        "ur",
        "es"
      ],
      [
        "unc",
        "erta"
      ],
      [
        "sur",
        "ge"
      ],
      [
        "inter",
        "est"
      ],
      [
        "'",
        ":"
      ],
      [
        "1",
        "2"
      ],
      [
        "G",
        "u"
      ],
      [
        "c",
        "er"
      ],
      [
        "c",
        "ent"
      ],
      [
        "c",
        "ard"
      ],
      [
        "i",
        "f"
      ],
      [
        "o",
        "ther"
      ],
      [
        "t",
        "r"
      ],
      [
        "t",
        "ime"
      ],
      [
        "u",
        "mp"
      ],
      [
        "re",
        "form"
      ],
      [
        "In",
        "dustrial"
      ],
      [
        "Com",
        "pan"
      ],
      [
        "lin",
        "e"
      ],
      [
        "shar",
        "p"
      ],
      [
        "alyst",
        "s"
      ],
      [
        "s",
        "c"
      ],
      [
        "w",
        "ay"
      ],
      [
        "th",
        "is"
      ],
      [
        "ic",
        "es"
      ],
      [
        "Bank",
        "ruptcies"
      ],
      [
        "Regulat",
        "ors"
      ],
      [
        "health",
        "care"
      ],
      [
        "Health",
        "care"
      ],
      [
        "Dividend",
        "s"
      ],
      [
        "Ris",
        "e"
      ],
      [
        "C",
        "or"
      ],
      [
        "M",
        "ar"
      ],
      [
        "T",
        "op"
      ],
      [
        "a",
        "th"
      ],
      [
        "c",
        "ris"
      ],
      [
        "l",
        "ic"
      ],
      [
        "r",
        "ate"
      ],
      [
        "t",
        "le"
      ],
      [
        "In",
        "d"
      ],
      [
        "low",
        "er"
      ],
      [
        "int",
        "y"
      ],
      [
        "der",
        "na"
      ],
      [
        "..",
        "."
      ],
      [
        "cris",
        "is"
      ],
      [
        "%",
        ","
      ],
      [
        "A",
        "verage"
      ],
      [
        "F",
        "ace"
      ],
      [
        "f",
        "ew"
      ],
      [
        "i",
        "o"
      ],
      [
        "r",
        "ic"
      ],
      [
        "s",
        "er"
      ],
      [
        "s",
        "id"
      ],
      [
        "s",
        "econ"
      ],
      [
        "at",
        "ed"
      ],
      [
        "st",
        "s"
      ],
      [
        "ex",
        "t"
      ],
      [
        "cre",
        "dit"
      ],
      [
        "bon",
        "ds"
      ],
      [
        "EC",
        "B"
      ],
      [
        "uncerta",
        "inty"
      ],
      [
        "secon",
        "d"
      ],
      [
        "b",
        "n"
      ],
      [
        "b",
        "as"
      ],
      [
        "e",
        "er"
      ],
      [
        "s",
        "day"
      ],
      [
        "ic",
        "s"
      ],
      [
        "ur",
        "al"
      ],
      [
        "ur",
        "sday"
      ],
      [
        "Regulat",
        "ions"
      ],
      [
        "rais",
        "e"
      ],
      [
        "ba",
        "ck"
      ],
      [
        "Th",
        "ursday"
      ],
      [
        "Mo",
        "derna"
      ],
      [
        "ath",
        "on"
      ],
      [
        "C",
        "ES"
      ],
      [
        "c",
        "us"
      ],
      [
        "h",
        "old"
      ],
      [
        "p",
        "ut"
      ],
      [
        "v",
        "o"
      ],
      [
        "w",
        "a"
      ],
      [
        "an",
        "alysts"
      ],
      [
        "in",
        "to"
      ],
      [
        "at",
        "ural"
      ],
      [
        "all",
        "y"
      ],
      [
        "se",
        "ll"
      ],
      [
        "ke",
        "y"
      ],
      [
        "00",
        "0"
      ],
      [
        "mak",
        "er"
      ],
      [
        "yst",
        "em"
      ],
      [
        "boo",
        "k"
      ],
      [
        "ind",
        "ex"
      ],
      [
        "Gu",
        "idance"
      ],
      [
        "Mar",
        "athon"
      ],
      [
        "C",
        "he"
      ],
      [
        "I",
        "M"
      ],
      [
        "h",
        "its"
      ],
      [
        "i",
        "ew"
      ],
      [
        "o",
        "co"
      ],
      [
        "s",
        "a"
      ],
      [
        "al",
        "s"
      ],
      [
        "is",
        "h"
      ],
      [
        "open",
        "s"
      ],
      [
        "EO",
        "G"
      ],
      [
        "dustr",
        "y"
      ],
      [
        "our",
        "c"
      ],
      [
        "lar",
        "gest"
      ],
      [
        "3",
        "9"
      ],
      [
        "C",
        "re"
      ],
      [
        "E",
        "con"
      ],
      [
        "M",
        "on"
      ],
      [
        "S",
        "ector"
      ],
      [
        "m",
        "e"
      ],
      [
        "u",
        "l"
      ],
      [
        "v",
        "ron"
      ],
      [
        "ar",
        "y"
      ],
      [
        "ar",
        "ing"
      ],
      [
        "at",
        "a"
      ],
      [
        "at",
        "ch"
      ],
      [
        "regulat",
        "e"
      ],
      [
        "Americ",
        "an"
      ],
      [
        "work",
        "ers"
      ],
      [
        "fut",
        "ure"
      ],
      [
        "Con",
        "oco"
      ],
      [
        "Che",
        "vron"
      ],
      [
        "Cre",
        "dit"
      ],
      [
        "Econ",
        "om"
      ],
      [
        ".",
        ","
      ],
      [
        "2",
        "0"
      ],
      [
        "I",
        "t"
      ],
      [
        "N",
        "atural"
      ],
      [
        "f",
        "in"
      ],
      [
        "i",
        "x"
      ],
      [
        "p",
        "en"
      ],
      [
        "u",
        "ld"
      ],
      [
        "an",
        "ad"
      ],
      [
        "ig",
        "n"
      ],
      [
        "un",
        "ch"
      ],
      [
        "Res",
        "ourc"
      ],
      [
        "ru",
        "les"
      ],
      [
        "ast",
        "er"
      ],
      [
        "prof",
        "it"
      ],
      [
        "Trad",
        "ers"
      ],
      [
        "Face",
        "book"
      ],
      [
        "Resourc",
        "es"
      ],
      [
        "C",
        "anad"
      ],
      [
        "b",
        "s"
      ],
      [
        "d",
        "espite"
      ],
      [
        "n",
        "e"
      ],
      [
        "u",
        "e"
      ],
      [
        "u",
        "lt"
      ],
      [
        "in",
        "vest"
      ],
      [
        "in",
        "cl"
      ],
      [
        "st",
        "ill"
      ],
      [
        "ec",
        "ut"
      ],
      [
        "ur",
        "t"
      ],
      [
        "se",
        "e"
      ],
      [
        "Ph",
        "one"
      ],
      [
        "app",
        "ro"
      ],
      [
        "ER",
        "C"
      ],
      [
        "Top",
        "ics"
      ],
      [
        "sid",
        "er"
      ],
      [
        "A",
        "re"
      ],
      [
        "H",
        "S"
      ],
      [
        "P",
        "ion"
      ],
      [
        "P",
        "age"
      ],
      [
        "b",
        "t"
      ],
      [
        "i",
        "Phone"
      ],
      [
        "l",
        "it"
      ],
      [
        "p",
        "e"
      ],
      [
        "p",
        "re"
      ],
      [
        "w",
        "o"
      ],
      [
        "in",
        "k"
      ],
      [
        "in",
        "dustry"
      ],
      [
        "is",
        "s"
      ],
      [
        "lo",
        "g"
      ],
      [
        "ut",
        "sc"
      ],
      [
        "co",
        "uld"
      ],
      [
        "we",
        "ak"
      ],
      [
        "Com",
        "m"
      ],
      [
        "pl",
        "un"
      ],
      [
        "De",
        "utsc"
      ],
      [
        "boo",
        "st"
      ],
      [
        "Mon",
        "day"
      ],
      [
        "incl",
        "ud"
      ],
      [
        "HS",
        "BC"
      ],
      [
        "Pion",
        "eer"
      ],
      [
        "Deutsc",
        "he"
      ],
      [
        "1",
        "0"
      ],
      [
        "1",
        "3"
      ],
      [
        "A",
        "P"
      ],
      [
        "F",
        "ERC"
      ],
      [
        "I",
        "B"
      ],
      [
        "M",
        "ark"
      ],
      [
        "T",
        "ech"
      ],
      [
        "W",
        "h"
      ],
      [
        "m",
        "illion"
      ],
      [
        "th",
        "ers"
      ],
      [
        "re",
        "e"
      ],
      [
        "it",
        "ies"
      ],
      [
        "un",
        "ce"
      ],
      [
        "im",
        "s"
      ],
      [
        "no",
        "log"
      ],
      [
        "qu",
        "ot"
      ],
      [
        "con",
        "cer"
      ],
      [
        "ru",
        "g"
      ],
      [
        "ip",
        "s"
      ],
      [
        "Prof",
        "its"
      ],
      [
        "lect",
        "ric"
      ],
      [
        "Cor",
        "p"
      ],
      [
        "lit",
        "tle"
      ],
      [
        "includ",
        "ing"
      ],
      [
        ";",
        "/"
      ],
      [
        "C",
        "are"
      ],
      [
        "M",
        "aster"
      ],
      [
        "P",
        "harma"
      ],
      [
        "W",
        "ed"
      ],
      [
        "b",
        "et"
      ],
      [
        "c",
        "a"
      ],
      [
        "f",
        "o"
      ],
      [
        "f",
        "ed"
      ],
      [
        "n",
        "esday"
      ],
      [
        "p",
        "ay"
      ],
      [
        "s",
        "o"
      ],
      [
        "s",
        "la"
      ],
      [
        "at",
        "ions"
      ],
      [
        "is",
        "a"
      ],
      [
        "is",
        "ion"
      ],
      [
        "st",
        "ake"
      ],
      [
        "ct",
        "ion"
      ],
      [
        "bank",
        "s"
      ],
      [
        "anno",
        "unce"
      ],
      [
        "mo",
        "st"
      ],
      [
        "mo",
        "ve"
      ],
      [
        "bas",
        "ed"
      ],
      [
        "Wed",
        "nesday"
      ],
      [
        "B",
        "e"
      ],
      [
        "F",
        "or"
      ],
      [
        "O",
        "il"
      ],
      [
        "V",
        "isa"
      ],
      [
        "d",
        "ata"
      ],
      [
        "d",
        "rug"
      ],
      [
        "i",
        "e"
      ],
      [
        "i",
        "ef"
      ],
      [
        "r",
        "est"
      ],
      [
        "at",
        "ing"
      ],
      [
        "ro",
        "ad"
      ],
      [
        "le",
        "ad"
      ],
      [
        "St",
        "ates"
      ],
      [
        "loom",
        "s"
      ],
      [
        "Upd",
        "ated"
      ],
      [
        "ou",
        "ld"
      ],
      [
        "cut",
        "s"
      ],
      [
        "sharp",
        "ly"
      ],
      [
        "Canad",
        "a"
      ],
      [
        "IB",
        "M"
      ],
      [
        "Wh",
        "at"
      ],
      [
        "nolog",
        "y"
      ],
      [
        "1",
        "1"
      ],
      [
        "G",
        "ile"
      ],
      [
        "J",
        "a"
      ],
      [
        "N",
        "o"
      ],
      [
        "O",
        "pen"
      ],
      [
        "S",
        "ch"
      ],
      [
        "a",
        "p"
      ],
      [
        "g",
        "ed"
      ],
      [
        "l",
        "ong"
      ],
      [
        "o",
        "thers"
      ],
      [
        "r",
        "it"
      ],
      [
        "r",
        "iv"
      ],
      [
        "al",
        "e"
      ],
      [
        "re",
        "at"
      ],
      [
        "Bank",
        "s"
      ],
      [
        "ll",
        "ar"
      ],
      [
        "lat",
        "ion"
      ],
      [
        "ec",
        "ur"
      ],
      [
        "ill",
        "ips"
      ],
      [
        "la",
        "unch"
      ],
      [
        "il",
        "ity"
      ],
      [
        "Regulat",
        "ion"
      ],
      [
        "iz",
        "on"
      ],
      [
        "En",
        "ron"
      ],
      [
        "mak",
        "es"
      ],
      [
        "rais",
        "es"
      ],
      [
        "ac",
        "cord"
      ],
      [
        "act",
        "ion"
      ],
      [
        "Ph",
        "illips"
      ],
      [
        "cl",
        "im"
      ],
      [
        "do",
        "llar"
      ],
      [
        "loss",
        "es"
      ],
      [
        "clos",
        "es"
      ],
      [
        "tak",
        "es"
      ],
      [
        "Compan",
        "ies"
      ],
      [
        "Econom",
        "ist"
      ],
      [
        "fed",
        "eral"
      ],
      [
        "Gile",
        "ad"
      ],
      [
        "accord",
        "ing"
      ],
      [
        "B",
        "ig"
      ],
      [
        "E",
        "P"
      ],
      [
        "H",
        "old"
      ],
      [
        "a",
        "mp"
      ],
      [
        "e",
        "qu"
      ],
      [
        "f",
        "f"
      ],
      [
        "m",
        "er"
      ],
      [
        "n",
        "ing"
      ],
      [
        "n",
        "um"
      ],
      [
        "re",
        "n"
      ],
      [
        "Jo",
        "bs"
      ],
      [
        "big",
        "gest"
      ],
      [
        "sl",
        "ight"
      ],
      [
        "lin",
        "es"
      ],
      [
        "ug",
        "g"
      ],
      [
        "ug",
        "h"
      ],
      [
        "issu",
        "e"
      ],
      [
        "hold",
        "ers"
      ],
      [
        "Comm",
        "iss"
      ],
      [
        "plun",
        "ge"
      ],
      [
        "Master",
        "card"
      ],
      [
        "sla",
        "m"
      ],
      [
        "Ja",
        "pan"
      ],
      [
        ";",
        "..."
      ],
      [
        "T",
        "u"
      ],
      [
        "b",
        "it"
      ],
      [
        "l",
        "ing"
      ],
      [
        "l",
        "um"
      ],
      [
        "n",
        "ow"
      ],
      [
        "n",
        "ext"
      ],
      [
        "s",
        "ystem"
      ],
      [
        "iv",
        "ate"
      ],
      [
        "un",
        "der"
      ],
      [
        "ch",
        "ief"
      ],
      [
        "la",
        "id"
      ],
      [
        "se",
        "ek"
      ],
      [
        "pr",
        "ess"
      ],
      [
        "look",
        "ing"
      ],
      [
        "ta",
        "x"
      ],
      [
        "po",
        "lic"
      ],
      [
        "con",
        "t"
      ],
      [
        "firm",
        "s"
      ],
      [
        "rev",
        "iew"
      ],
      [
        "United",
        "Health"
      ],
      [
        "mon",
        "th"
      ],
      [
        "Ind",
        "ex"
      ],
      [
        "io",
        "us"
      ],
      [
        "ecut",
        "ive"
      ],
      [
        "slight",
        "ly"
      ],
      [
        "Commiss",
        "ion"
      ],
      [
        ";...",
        "&"
      ],
      [
        "D",
        "espite"
      ],
      [
        "N",
        "as"
      ],
      [
        "N",
        "BC"
      ],
      [
        "V",
        "er"
      ],
      [
        "a",
        "q"
      ],
      [
        "c",
        "all"
      ],
      [
        "c",
        "ess"
      ],
      [
        "s",
        "p"
      ],
      [
        "s",
        "ales"
      ],
      [
        "s",
        "ign"
      ],
      [
        "u",
        "b"
      ],
      [
        "re",
        "le"
      ],
      [
        "ma",
        "in"
      ],
      [
        "ir",
        "d"
      ],
      [
        "pr",
        "ivate"
      ],
      [
        "year",
        "s"
      ],
      [
        "berg",
        "er"
      ],
      [
        "quarter",
        "ly"
      ],
      [
        "sl",
        "ide"
      ],
      [
        "ser",
        "v"
      ],
      [
        "Conoco",
        "Phillips"
      ],
      [
        "Sch",
        "lum"
      ],
      [
        "ecur",
        "ities"
      ],
      [
        "clim",
        "b"
      ],
      [
        "num",
        "ber"
      ],
      [
        "Tu",
        "esday"
      ],
      [
        "polic",
        "y"
      ],
      [
        "Schlum",
        "berger"
      ],
      [
        "%",
        "."
      ],
      [
        "8",
        "0"
      ],
      [
        "E",
        "X"
      ],
      [
        "G",
        "M"
      ],
      [
        "a",
        "ims"
      ],
      [
        "c",
        "ur"
      ],
      [
        "d",
        "ire"
      ],
      [
        "d",
        "aq"
      ],
      [
        "e",
        "v"
      ],
      [
        "g",
        "in"
      ],
      [
        "j",
        "ump"
      ],
      [
        "m",
        "ed"
      ],
      [
        "m",
        "ix"
      ],
      [
        "n",
        "et"
      ],
      [
        "t",
        "y"
      ],
      [
        "t",
        "wo"
      ],
      [
        "er",
        "e"
      ],
      [
        "or",
        "e"
      ],
      [
        "ro",
        "und"
      ],
      [
        "com",
        "ing"
      ],
      [
        "la",
        "st"
      ],
      [
        "go",
        "ing"
      ],
      [
        "op",
        "le"
      ],
      [
        "ru",
        "ct"
      ],
      [
        "share",
        "holders"
      ],
      [
        "one",
        "y"
      ],
      [
        "prof",
        "its"
      ],
      [
        "pos",
        "it"
      ],
      [
        "plan",
        "s"
      ],
      [
        "invest",
        "ment"
      ],
      [
        "Pharma",
        "ceutical"
      ],
      [
        "ca",
        "ut"
      ],
      [
        "Nas",
        "daq"
      ],
      [
        "Ver",
        "izon"
      ],
      [
        "1",
        "4"
      ],
      [
        "1",
        "7"
      ],
      [
        "A",
        "n"
      ],
      [
        "D",
        "ec"
      ],
      [
        "D",
        "rop"
      ],
      [
        "F",
        "ut"
      ],
      [
        "O",
        "ut"
      ],
      [
        "S",
        "h"
      ],
      [
        "a",
        "w"
      ],
      [
        "a",
        "gain"
      ],
      [
        "b",
        "r"
      ],
      [
        "b",
        "road"
      ],
      [
        "d",
        "is"
      ],
      [
        "f",
        "a"
      ],
      [
        "f",
        "e"
      ],
      [
        "f",
        "lo"
      ],
      [
        "g",
        "ive"
      ],
      [
        "h",
        "u"
      ],
      [
        "i",
        "ck"
      ],
      [
        "p",
        "aring"
      ],
      [
        "r",
        "ally"
      ],
      [
        "u",
        "ck"
      ],
      [
        "v",
        "ers"
      ],
      [
        "w",
        "ar"
      ],
      [
        "w",
        "ake"
      ],
      [
        "re",
        "as"
      ],
      [
        "re",
        "cent"
      ],
      [
        "the",
        "y"
      ],
      [
        "en",
        "ce"
      ],
      [
        "om",
        "ing"
      ],
      [
        "he",
        "l"
      ],
      [
        "ur",
        "y"
      ],
      [
        "iv",
        "es"
      ],
      [
        "merg",
        "es"
      ],
      [
        "merg",
        "ing"
      ],
      [
        "ver",
        "y"
      ],
      [
        "ke",
        "ep"
      ],
      [
        "de",
        "bt"
      ],
      [
        "chan",
        "ges"
      ],
      [
        "mo",
        "d"
      ],
      [
        "tech",
        "nology"
      ],
      [
        "fil",
        "ings"
      ],
      [
        "buy",
        "ing"
      ],
      [
        "bo",
        "oming"
      ],
      [
        "clos",
        "ed"
      ],
      [
        "tr",
        "y"
      ],
      [
        "me",
        "et"
      ],
      [
        "pre",
        "paring"
      ],
      [
        "fo",
        "cus"
      ],
      [
        "EP",
        "S"
      ],
      [
        "serv",
        "ices"
      ],
      [
        "mix",
        "ed"
      ],
      [
        "2",
        "00"
      ],
      [
        "B",
        "oo"
      ],
      [
        "B",
        "uy"
      ],
      [
        "F",
        "all"
      ],
      [
        "F",
        "DA"
      ],
      [
        "G",
        "roup"
      ],
      [
        "L",
        "at"
      ],
      [
        "O",
        "n"
      ],
      [
        "S",
        "X"
      ],
      [
        "V",
        "al"
      ],
      [
        "W",
        "atch"
      ],
      [
        "a",
        "g"
      ],
      [
        "f",
        "lation"
      ],
      [
        "h",
        "al"
      ],
      [
        "t",
        "um"
      ],
      [
        "v",
        "es"
      ],
      [
        "th",
        "ird"
      ],
      [
        "to",
        "ugh"
      ],
      [
        "it",
        "ing"
      ],
      [
        "st",
        "art"
      ],
      [
        "as",
        "ing"
      ],
      [
        "ear",
        "s"
      ],
      [
        "end",
        "ing"
      ],
      [
        "ad",
        "y"
      ],
      [
        "ver",
        "al"
      ],
      [
        "Mor",
        "e"
      ],
      [
        "We",
        "ek"
      ],
      [
        "ra",
        "m"
      ],
      [
        "po",
        "sts"
      ],
      [
        "Is",
        "su"
      ],
      [
        "tak",
        "ing"
      ],
      [
        "sa",
        "id"
      ],
      [
        "rest",
        "ruct"
      ],
      [
        "Economist",
        "s"
      ],
      [
        "Lat",
        "est"
      ],
      [
        "7",
        "5"
      ],
      [
        "B",
        "o"
      ],
      [
        "C",
        "lo"
      ],
      [
        "G",
        "et"
      ],
      [
        "M",
        "EX"
      ],
      [
        "N",
        "C"
      ],
      [
        "V",
        "ent"
      ],
      [
        "a",
        "head"
      ],
      [
        "c",
        "r"
      ],
      [
        "c",
        "ar"
      ],
      [
        "g",
        "as"
      ],
      [
        "j",
        "o"
      ],
      [
        "m",
        "in"
      ],
      [
        "m",
        "and"
      ],
      [
        "p",
        "ast"
      ],
      [
        "s",
        "in"
      ],
      [
        "s",
        "le"
      ],
      [
        "t",
        "s"
      ],
      [
        "t",
        "ar"
      ],
      [
        "t",
        "urn"
      ],
      [
        "t",
        "ight"
      ],
      [
        "v",
        "ing"
      ],
      [
        "v",
        "ent"
      ],
      [
        "w",
        "as"
      ],
      [
        "er",
        "o"
      ],
      [
        "to",
        "day"
      ],
      [
        "re",
        "co"
      ],
      [
        "lo",
        "t"
      ],
      [
        "la",
        "w"
      ],
      [
        "ex",
        "ecutive"
      ],
      [
        "we",
        "igh"
      ],
      [
        "po",
        "int"
      ],
      [
        "Co",
        "urt"
      ],
      [
        "NY",
        "MEX"
      ],
      [
        "Pr",
        "ices"
      ],
      [
        "ss",
        "i"
      ],
      [
        "dec",
        "ision"
      ],
      [
        "IM",
        "F"
      ],
      [
        "pe",
        "ople"
      ],
      [
        "equ",
        "ity"
      ],
      [
        "dire",
        "ction"
      ],
      [
        "broad",
        "er"
      ],
      [
        "reas",
        "ury"
      ],
      [
        "mod",
        "ity"
      ],
      [
        "sin",
        "ce"
      ],
      [
        "2",
        "5"
      ],
      [
        "A",
        "T"
      ],
      [
        "B",
        "illion"
      ],
      [
        "G",
        "S"
      ],
      [
        "L",
        "aw"
      ],
      [
        "P",
        "o"
      ],
      [
        "R",
        "ec"
      ],
      [
        "S",
        "ecurities"
      ],
      [
        "T",
        "D"
      ],
      [
        "Z",
        "uck"
      ],
      [
        "e",
        "lectric"
      ],
      [
        "f",
        "ect"
      ],
      [
        "k",
        "s"
      ],
      [
        "m",
        "ber"
      ],
      [
        "t",
        "al"
      ],
      [
        "w",
        "ould"
      ],
      [
        "er",
        "ing"
      ],
      [
        "er",
        "berg"
      ],
      [
        "en",
        "ing"
      ],
      [
        "en",
        "ue"
      ],
      [
        "ic",
        "h"
      ],
      [
        "gu",
        "ide"
      ],
      [
        "as",
        "es"
      ],
      [
        "In",
        "sider"
      ],
      [
        "ad",
        "e"
      ],
      [
        "ow",
        "er"
      ],
      [
        "ris",
        "es"
      ],
      [
        "pro",
        "pos"
      ],
      [
        "de",
        "mand"
      ],
      [
        "NY",
        "Times"
      ],
      [
        "sur",
        "p"
      ],
      [
        "mak",
        "ing"
      ],
      [
        "fut",
        "ures"
      ],
      [
        "Se",
        "veral"
      ],
      [
        "Prof",
        "it"
      ],
      [
        "Compan",
        "y"
      ],
      [
        "vo",
        "lat"
      ],
      [
        "wa",
        "ve"
      ],
      [
        "riv",
        "al"
      ],
      [
        "ub",
        "lic"
      ],
      [
        "hu",
        "ge"
      ],
      [
        "Zuck",
        "erberg"
      ],
      [
        ",",
        "'"
      ],
      [
        "A",
        "O"
      ],
      [
        "A",
        "f"
      ],
      [
        "F",
        "ile"
      ],
      [
        "H",
        "ou"
      ],
      [
        "a",
        "ir"
      ],
      [
        "b",
        "ad"
      ],
      [
        "d",
        "on"
      ],
      [
        "f",
        "ears"
      ],
      [
        "h",
        "and"
      ],
      [
        "l",
        "ess"
      ],
      [
        "m",
        "u"
      ],
      [
        "m",
        "art"
      ],
      [
        "p",
        "la"
      ],
      [
        "s",
        "low"
      ],
      [
        "w",
        "are"
      ],
      [
        "in",
        "dustrial"
      ],
      [
        "th",
        "ink"
      ],
      [
        "es",
        "id"
      ],
      [
        "re",
        "main"
      ],
      [
        "at",
        "ive"
      ],
      [
        "ur",
        "ing"
      ],
      [
        "un",
        "e"
      ],
      [
        "ter",
        "m"
      ],
      [
        "lay",
        "s"
      ],
      [
        "lay",
        "off"
      ],
      [
        "ris",
        "k"
      ],
      [
        "im",
        "p"
      ],
      [
        "we",
        "en"
      ],
      [
        "po",
        "ssi"
      ],
      [
        "ab",
        "le"
      ],
      [
        "sl",
        "ugg"
      ],
      [
        "rais",
        "ing"
      ],
      [
        "res",
        "ult"
      ],
      [
        "wh",
        "ile"
      ],
      [
        "wh",
        "ich"
      ],
      [
        "bon",
        "d"
      ],
      [
        "per",
        "form"
      ],
      [
        "reported",
        "ly"
      ],
      [
        "concer",
        "ns"
      ],
      [
        "bet",
        "ween"
      ],
      [
        "Out",
        "look"
      ],
      [
        "Val",
        "ero"
      ],
      [
        "tum",
        "ble"
      ],
      [
        "sle",
        "w"
      ],
      [
        "Hou",
        "se"
      ],
      [
        "esid",
        "ent"
      ],
      [
        "slugg",
        "ish"
      ],
      [
        "2",
        "7"
      ],
      [
        "2",
        "8"
      ],
      [
        "3",
        "bn"
      ],
      [
        "H",
        "ow"
      ],
      [
        "I",
        "T"
      ],
      [
        "M",
        "ay"
      ],
      [
        "N",
        "ext"
      ],
      [
        "R",
        "u"
      ],
      [
        "S",
        "ep"
      ],
      [
        "T",
        "SX"
      ],
      [
        "Y",
        "TD"
      ],
      [
        "a",
        "u"
      ],
      [
        "a",
        "verage"
      ],
      [
        "b",
        "b"
      ],
      [
        "c",
        "ase"
      ],
      [
        "f",
        "ac"
      ],
      [
        "i",
        "ke"
      ],
      [
        "o",
        "s"
      ],
      [
        "p",
        "ublic"
      ],
      [
        "r",
        "af"
      ],
      [
        "w",
        "he"
      ],
      [
        "to",
        "ol"
      ],
      [
        "re",
        "ady"
      ],
      [
        "is",
        "ed"
      ],
      [
        "st",
        "ep"
      ],
      [
        "as",
        "s"
      ],
      [
        "Re",
        "action"
      ],
      [
        "pp",
        "ed"
      ],
      [
        "go",
        "ld"
      ],
      [
        "be",
        "at"
      ],
      [
        "ra",
        "ck"
      ],
      [
        "con",
        "sider"
      ],
      [
        "EO",
        "L"
      ],
      [
        "sl",
        "ash"
      ],
      [
        "gain",
        "s"
      ],
      [
        "rev",
        "enue"
      ],
      [
        "per",
        "cent"
      ],
      [
        "Europe",
        "an"
      ],
      [
        "put",
        "ting"
      ],
      [
        "fin",
        "ds"
      ],
      [
        "concer",
        "n"
      ],
      [
        "launch",
        "es"
      ],
      [
        "Hold",
        "ings"
      ],
      [
        "seek",
        "s"
      ],
      [
        "cont",
        "in"
      ],
      [
        "Pharmaceutical",
        "s"
      ],
      [
        "caut",
        "ious"
      ],
      [
        "again",
        "st"
      ],
      [
        "tar",
        "get"
      ],
      [
        "GS",
        "Y"
      ],
      [
        "propos",
        "ed"
      ],
      [
        "possi",
        "ble"
      ],
      [
        "perform",
        "ance"
      ],
      [
        ")",
        ":"
      ],
      [
        "-",
        "-"
      ],
      [
        "3",
        "7"
      ],
      [
        "A",
        "B"
      ],
      [
        "E",
        "lectric"
      ],
      [
        "F",
        "I"
      ],
      [
        "J",
        "une"
      ],
      [
        "L",
        "e"
      ],
      [
        "M",
        "oney"
      ],
      [
        "O",
        "ba"
      ],
      [
        "S",
        "u"
      ],
      [
        "S",
        "ystem"
      ],
      [
        "a",
        "ck"
      ],
      [
        "g",
        "er"
      ],
      [
        "g",
        "ing"
      ],
      [
        "g",
        "roup"
      ],
      [
        "o",
        "int"
      ],
      [
        "r",
        "ong"
      ],
      [
        "r",
        "ation"
      ],
      [
        "s",
        "ale"
      ],
      [
        "t",
        "ent"
      ],
      [
        "v",
        "erg"
      ],
      [
        "w",
        "rit"
      ],
      [
        "re",
        "d"
      ],
      [
        "re",
        "ach"
      ],
      [
        "re",
        "tool"
      ],
      [
        "et",
        "ary"
      ],
      [
        "is",
        "se"
      ],
      [
        "lo",
        "ut"
      ],
      [
        "as",
        "set"
      ],
      [
        "com",
        "e"
      ],
      [
        "com",
        "mer"
      ],
      [
        "Market",
        "Watch"
      ],
      [
        "ris",
        "ing"
      ],
      [
        "co",
        "un"
      ],
      [
        "qu",
        "est"
      ],
      [
        "te",
        "mber"
      ],
      [
        "man",
        "y"
      ],
      [
        "fall",
        "s"
      ],
      [
        "announc",
        "ed"
      ],
      [
        "Com",
        "modity"
      ],
      [
        "employ",
        "ment"
      ],
      [
        "buy",
        "s"
      ],
      [
        "am",
        "e"
      ],
      [
        "am",
        "id"
      ],
      [
        "get",
        "ting"
      ],
      [
        "Trad",
        "e"
      ],
      [
        "ol",
        "low"
      ],
      [
        "app",
        "oint"
      ],
      [
        "head",
        "lines"
      ],
      [
        "ser",
        "ies"
      ],
      [
        "press",
        "ure"
      ],
      [
        "month",
        "s"
      ],
      [
        "cur",
        "ren"
      ],
      [
        "hel",
        "p"
      ],
      [
        "hal",
        "f"
      ],
      [
        "Issu",
        "es"
      ],
      [
        "cr",
        "ash"
      ],
      [
        "jo",
        "in"
      ],
      [
        "point",
        "s"
      ],
      [
        "AO",
        "L"
      ],
      [
        "pla",
        "ce"
      ],
      [
        "Sep",
        "tember"
      ],
      [
        "whe",
        "ther"
      ],
      [
        "FI",
        "NA"
      ],
      [
        "Oba",
        "ma"
      ],
      [
        "Su",
        "isse"
      ],
      [
        "verg",
        "e"
      ],
      [
        "commer",
        "ce"
      ],
      [
        "1",
        "5"
      ],
      [
        "1",
        "9"
      ],
      [
        "2",
        "1"
      ],
      [
        "2",
        "9"
      ],
      [
        "3",
        "2"
      ],
      [
        "4",
        "0"
      ],
      [
        "4",
        "3"
      ],
      [
        "A",
        "L"
      ],
      [
        "A",
        "pr"
      ],
      [
        "A",
        "bb"
      ],
      [
        "F",
        "X"
      ],
      [
        "M",
        "ac"
      ],
      [
        "O",
        "ff"
      ],
      [
        "T",
        "ake"
      ],
      [
        "V",
        "ie"
      ],
      [
        "W",
        "ith"
      ],
      [
        "W",
        "hit"
      ],
      [
        "Y",
        "ear"
      ],
      [
        "e",
        "ve"
      ],
      [
        "e",
        "ep"
      ],
      [
        "i",
        "lout"
      ],
      [
        "p",
        "ick"
      ],
      [
        "s",
        "li"
      ],
      [
        "s",
        "ia"
      ],
      [
        "t",
        "en"
      ],
      [
        "w",
        "ard"
      ],
      [
        "w",
        "ere"
      ],
      [
        "th",
        "ree"
      ],
      [
        "al",
        "u"
      ],
      [
        "re",
        "ak"
      ],
      [
        "ic",
        "e"
      ],
      [
        "ic",
        "ations"
      ],
      [
        "St",
        "rong"
      ],
      [
        "un",
        "employment"
      ],
      [
        "ad",
        "min"
      ],
      [
        "merg",
        "ed"
      ],
      [
        "ir",
        "ing"
      ],
      [
        "soft",
        "ware"
      ],
      [
        "us",
        "h"
      ],
      [
        "high",
        "s"
      ],
      [
        "li",
        "ke"
      ],
      [
        "mo",
        "dit"
      ],
      [
        "ab",
        "ility"
      ],
      [
        "ist",
        "ration"
      ],
      [
        "am",
        "in"
      ],
      [
        "ba",
        "ilout"
      ],
      [
        "wh",
        "o"
      ],
      [
        "wh",
        "at"
      ],
      [
        "issu",
        "es"
      ],
      [
        "reform",
        "s"
      ],
      [
        "put",
        "er"
      ],
      [
        "so",
        "aring"
      ],
      [
        "slam",
        "s"
      ],
      [
        "br",
        "ink"
      ],
      [
        "fe",
        "ll"
      ],
      [
        "flo",
        "p"
      ],
      [
        "Clo",
        "se"
      ],
      [
        "Vent",
        "ures"
      ],
      [
        "weigh",
        "ing"
      ],
      [
        "tal",
        "ks"
      ],
      [
        "Af",
        "ter"
      ],
      [
        "Ru",
        "les"
      ],
      [
        "raf",
        "t"
      ],
      [
        "Apr",
        "il"
      ],
      [
        "Abb",
        "Vie"
      ],
      [
        "Whit",
        "e"
      ],
      [
        "admin",
        "istration"
      ],
      [
        "modit",
        "ies"
      ],
      [
        "0",
        "8"
      ],
      [
        "1",
        "8"
      ],
      [
        "3",
        "1"
      ],
      [
        "A",
        "M"
      ],
      [
        "C",
        "NBC"
      ],
      [
        "D",
        "B"
      ],
      [
        "F",
        "ir"
      ],
      [
        "H",
        "it"
      ],
      [
        "H",
        "igh"
      ],
      [
        "I",
        "r"
      ],
      [
        "L",
        "on"
      ],
      [
        "O",
        "DA"
      ],
      [
        "P",
        "G"
      ],
      [
        "S",
        "en"
      ],
      [
        "T",
        "reasury"
      ],
      [
        "a",
        "go"
      ],
      [
        "b",
        "u"
      ],
      [
        "b",
        "usiness"
      ],
      [
        "c",
        "iting"
      ],
      [
        "d",
        "le"
      ],
      [
        "e",
        "y"
      ],
      [
        "f",
        "act"
      ],
      [
        "f",
        "our"
      ],
      [
        "f",
        "ul"
      ],
      [
        "g",
        "iv"
      ],
      [
        "g",
        "ative"
      ],
      [
        "h",
        "ist"
      ],
      [
        "h",
        "ot"
      ],
      [
        "l",
        "ed"
      ],
      [
        "m",
        "ers"
      ],
      [
        "n",
        "early"
      ],
      [
        "p",
        "h"
      ],
      [
        "p",
        "art"
      ],
      [
        "r",
        "y"
      ],
      [
        "r",
        "ating"
      ],
      [
        "t",
        "g"
      ],
      [
        "t",
        "i"
      ],
      [
        "t",
        "ur"
      ],
      [
        "u",
        "st"
      ],
      [
        "w",
        "atch"
      ],
      [
        "in",
        "sur"
      ],
      [
        "ar",
        "ed"
      ],
      [
        "th",
        "ing"
      ],
      [
        "th",
        "reat"
      ],
      [
        "es",
        "h"
      ],
      [
        "re",
        "ve"
      ],
      [
        "re",
        "open"
      ],
      [
        "re",
        "opens"
      ],
      [
        "en",
        "gin"
      ],
      [
        "it",
        "ion"
      ],
      [
        "it",
        "ch"
      ],
      [
        "ed",
        "ge"
      ],
      [
        "st",
        "im"
      ],
      [
        "iv",
        "ity"
      ],
      [
        "US",
        "AT"
      ],
      [
        "ig",
        "ns"
      ],
      [
        "In",
        "flation"
      ],
      [
        "Re",
        "v"
      ],
      [
        "un",
        "ve"
      ],
      [
        "oo",
        "k"
      ],
      [
        "du",
        "cer"
      ],
      [
        "ex",
        "amin"
      ],
      [
        "be",
        "ing"
      ],
      [
        "be",
        "low"
      ],
      [
        "co",
        "ll"
      ],
      [
        "ess",
        "ion"
      ],
      [
        "Cit",
        "y"
      ],
      [
        "loom",
        "ing"
      ],
      [
        "mor",
        "ning"
      ],
      [
        "mor",
        "tg"
      ],
      [
        "sur",
        "ges"
      ],
      [
        "mak",
        "ers"
      ],
      [
        "ther",
        "e"
      ],
      [
        "ac",
        "qu"
      ],
      [
        "ide",
        "a"
      ],
      [
        "grow",
        "ing"
      ],
      [
        "pit",
        "al"
      ],
      [
        "bo",
        "ard"
      ],
      [
        "lar",
        "ge"
      ],
      [
        "Se",
        "ek"
      ],
      [
        "mon",
        "etary"
      ],
      [
        "tr",
        "ies"
      ],
      [
        "vo",
        "te"
      ],
      [
        "IM",
        "DB"
      ],
      [
        "lead",
        "ing"
      ],
      [
        "posit",
        "ive"
      ],
      [
        "Fut",
        "ures"
      ],
      [
        "try",
        "ing"
      ],
      [
        "restruct",
        "uring"
      ],
      [
        "surp",
        "rise"
      ],
      [
        "mu",
        "ch"
      ],
      [
        "imp",
        "act"
      ],
      [
        "result",
        "s"
      ],
      [
        "contin",
        "ue"
      ],
      [
        "Lon",
        "don"
      ],
      [
        "ODA",
        "Y"
      ],
      [
        "USAT",
        "ODAY"
      ],
      [
        "unve",
        "il"
      ],
      [
        "3",
        "0"
      ],
      [
        "5",
        "0"
      ],
      [
        "7",
        "0"
      ],
      [
        "B",
        "on"
      ],
      [
        "F",
        "ide"
      ],
      [
        "J",
        "ump"
      ],
      [
        "L",
        "ook"
      ],
      [
        "M",
        "id"
      ],
      [
        "M",
        "ot"
      ],
      [
        "N",
        "e"
      ],
      [
        "S",
        "ay"
      ],
      [
        "S",
        "ome"
      ],
      [
        "Z",
        "e"
      ],
      [
        "b",
        "est"
      ],
      [
        "c",
        "y"
      ],
      [
        "f",
        "ram"
      ],
      [
        "f",
        "ollow"
      ],
      [
        "h",
        "is"
      ],
      [
        "h",
        "urt"
      ],
      [
        "h",
        "ike"
      ],
      [
        "i",
        "an"
      ],
      [
        "i",
        "or"
      ],
      [
        "l",
        "s"
      ],
      [
        "l",
        "end"
      ],
      [
        "l",
        "ity"
      ],
      [
        "l",
        "ist"
      ],
      [
        "m",
        "id"
      ],
      [
        "p",
        "t"
      ],
      [
        "p",
        "rev"
      ],
      [
        "r",
        "i"
      ],
      [
        "s",
        "w"
      ],
      [
        "s",
        "ing"
      ],
      [
        "s",
        "ank"
      ],
      [
        "t",
        "ro"
      ],
      [
        "v",
        "en"
      ],
      [
        "v",
        "ed"
      ],
      [
        "an",
        "other"
      ],
      [
        "th",
        "or"
      ],
      [
        "es",
        "e"
      ],
      [
        "al",
        "and"
      ],
      [
        "to",
        "o"
      ],
      [
        "le",
        "com"
      ],
      [
        "ew",
        "ork"
      ],
      [
        "ec",
        "ast"
      ],
      [
        "com",
        "p"
      ],
      [
        "com",
        "modities"
      ],
      [
        "In",
        "ter"
      ],
      [
        "Re",
        "form"
      ],
      [
        "regulat",
        "or"
      ],
      [
        "ad",
        "v"
      ],
      [
        "du",
        "ce"
      ],
      [
        "go",
        "ti"
      ],
      [
        "im",
        "pos"
      ],
      [
        "pro",
        "s"
      ],
      [
        "pro",
        "cess"
      ],
      [
        "pro",
        "ducer"
      ],
      [
        "Joh",
        "n"
      ],
      [
        "Regulat",
        "ing"
      ],
      [
        "day",
        "s"
      ],
      [
        "te",
        "lecom"
      ],
      [
        "ment",
        "s"
      ],
      [
        "fr",
        "esh"
      ],
      [
        "low",
        "s"
      ],
      [
        "con",
        "f"
      ],
      [
        "con",
        "su"
      ],
      [
        "mo",
        "il"
      ],
      [
        "wor",
        "th"
      ],
      [
        "trad",
        "ers"
      ],
      [
        "prof",
        "ile"
      ],
      [
        "res",
        "igns"
      ],
      [
        "bo",
        "th"
      ],
      [
        "work",
        "s"
      ],
      [
        "dec",
        "line"
      ],
      [
        "if",
        "f"
      ],
      [
        "cus",
        "s"
      ],
      [
        "vo",
        "id"
      ],
      [
        "invest",
        "or"
      ],
      [
        "appro",
        "ves"
      ],
      [
        "boost",
        "ed"
      ],
      [
        "call",
        "ed"
      ],
      [
        "ev",
        "alu"
      ],
      [
        "Fut",
        "ure"
      ],
      [
        "Sh",
        "are"
      ],
      [
        "fa",
        "ult"
      ],
      [
        "war",
        "ning"
      ],
      [
        "focus",
        "es"
      ],
      [
        "reco",
        "very"
      ],
      [
        "volat",
        "ility"
      ],
      [
        "air",
        "man"
      ],
      [
        "consider",
        "ing"
      ],
      [
        "reach",
        "es"
      ],
      [
        "ten",
        "se"
      ],
      [
        "tur",
        "moil"
      ],
      [
        "reve",
        "als"
      ],
      [
        "coll",
        "ap"
      ],
      [
        "Fide",
        "lity"
      ],
      [
        "Ze",
        "aland"
      ],
      [
        "fram",
        "ework"
      ],
      [
        "'",
        "'"
      ],
      [
        "1",
        "6"
      ],
      [
        "2",
        "2"
      ],
      [
        "3",
        "6"
      ],
      [
        "6",
        "3"
      ],
      [
        "9",
        "0"
      ],
      [
        "A",
        "d"
      ],
      [
        "A",
        "r"
      ],
      [
        "B",
        "N"
      ],
      [
        "B",
        "ut"
      ],
      [
        "C",
        "O"
      ],
      [
        "C",
        "all"
      ],
      [
        "C",
        "ard"
      ],
      [
        "E",
        "ast"
      ],
      [
        "F",
        "in"
      ],
      [
        "F",
        "red"
      ],
      [
        "G",
        "er"
      ],
      [
        "G",
        "en"
      ],
      [
        "I",
        "G"
      ],
      [
        "I",
        "AL"
      ],
      [
        "J",
        "J"
      ],
      [
        "J",
        "an"
      ],
      [
        "M",
        "ed"
      ],
      [
        "M",
        "ake"
      ],
      [
        "N",
        "ot"
      ],
      [
        "P",
        "art"
      ],
      [
        "P",
        "ower"
      ],
      [
        "Q",
        "u"
      ],
      [
        "R",
        "ed"
      ],
      [
        "R",
        "us"
      ],
      [
        "S",
        "m"
      ],
      [
        "T",
        "ru"
      ],
      [
        "Y",
        "a"
      ],
      [
        "Y",
        "ou"
      ],
      [
        "a",
        "il"
      ],
      [
        "a",
        "ver"
      ],
      [
        "a",
        "wa"
      ],
      [
        "b",
        "id"
      ],
      [
        "b",
        "ill"
      ],
      [
        "b",
        "io"
      ],
      [
        "c",
        "he"
      ],
      [
        "d",
        "ra"
      ],
      [
        "d",
        "ie"
      ],
      [
        "e",
        "u"
      ],
      [
        "e",
        "lect"
      ],
      [
        "f",
        "ast"
      ],
      [
        "f",
        "ile"
      ],
      [
        "f",
        "ty"
      ],
      [
        "g",
        "loom"
      ],
      [
        "g",
        "ging"
      ],
      [
        "h",
        "oo"
      ],
      [
        "h",
        "ome"
      ],
      [
        "j",
        "ust"
      ],
      [
        "l",
        "and"
      ],
      [
        "l",
        "ight"
      ],
      [
        "m",
        "ark"
      ],
      [
        "m",
        "un"
      ],
      [
        "m",
        "oney"
      ],
      [
        "m",
        "ade"
      ],
      [
        "n",
        "ation"
      ],
      [
        "p",
        "ower"
      ],
      [
        "r",
        "al"
      ],
      [
        "t",
        "on"
      ],
      [
        "t",
        "ic"
      ],
      [
        "t",
        "rack"
      ],
      [
        "v",
        "s"
      ],
      [
        "w",
        "it"
      ],
      [
        "y",
        "et"
      ],
      [
        "y",
        "ou"
      ],
      [
        "in",
        "es"
      ],
      [
        "or",
        "m"
      ],
      [
        "re",
        "bo"
      ],
      [
        "re",
        "think"
      ],
      [
        "en",
        "s"
      ],
      [
        "en",
        "act"
      ],
      [
        "it",
        "ut"
      ],
      [
        "ic",
        "ial"
      ],
      [
        "he",
        "fty"
      ],
      [
        "le",
        "ast"
      ],
      [
        "st",
        "er"
      ],
      [
        "st",
        "ance"
      ],
      [
        "st",
        "ud"
      ],
      [
        "st",
        "itut"
      ],
      [
        "as",
        "ed"
      ],
      [
        "com",
        "puter"
      ],
      [
        "off",
        "ers"
      ],
      [
        "off",
        "ering"
      ],
      [
        "In",
        "vest"
      ],
      [
        "In",
        "vent"
      ],
      [
        "ve",
        "l"
      ],
      [
        "il",
        "d"
      ],
      [
        "go",
        "v"
      ],
      [
        "report",
        "ing"
      ],
      [
        "ance",
        "ll"
      ],
      [
        "str",
        "a"
      ],
      [
        "bank",
        "ing"
      ],
      [
        "bank",
        "rupt"
      ],
      [
        "af",
        "fect"
      ],
      [
        "Goo",
        "d"
      ],
      [
        "ta",
        "il"
      ],
      [
        "Chin",
        "ese"
      ],
      [
        "po",
        "tent"
      ],
      [
        "sh",
        "ould"
      ],
      [
        "cre",
        "ate"
      ],
      [
        "ha",
        "pp"
      ],
      [
        "ru",
        "de"
      ],
      [
        "pl",
        "et"
      ],
      [
        "De",
        "al"
      ],
      [
        "De",
        "ad"
      ],
      [
        "De",
        "bt"
      ],
      [
        "Pr",
        "esident"
      ],
      [
        "expect",
        "ations"
      ],
      [
        "week",
        "s"
      ],
      [
        "ef",
        "f"
      ],
      [
        "ef",
        "for"
      ],
      [
        "ef",
        "fect"
      ],
      [
        "ire",
        "d"
      ],
      [
        "Product",
        "ivity"
      ],
      [
        "mon",
        "op"
      ],
      [
        "Ind",
        "ia"
      ],
      [
        "sell",
        "ing"
      ],
      [
        "ne",
        "gative"
      ],
      [
        "ne",
        "goti"
      ],
      [
        "appro",
        "ve"
      ],
      [
        "so",
        "ared"
      ],
      [
        "rele",
        "ase"
      ],
      [
        "jump",
        "ed"
      ],
      [
        "200",
        "1"
      ],
      [
        "Boo",
        "sts"
      ],
      [
        "Buy",
        "ing"
      ],
      [
        "NC",
        "IAL"
      ],
      [
        "car",
        "s"
      ],
      [
        "tight",
        "en"
      ],
      [
        "slow",
        "down"
      ],
      [
        "fac",
        "es"
      ],
      [
        "asset",
        "s"
      ],
      [
        "curren",
        "t"
      ],
      [
        "FINA",
        "NCIAL"
      ],
      [
        "pick",
        "s"
      ],
      [
        "like",
        "ly"
      ],
      [
        "AM",
        "D"
      ],
      [
        "Fir",
        "st"
      ],
      [
        "Sen",
        "ate"
      ],
      [
        "hist",
        "ory"
      ],
      [
        "unveil",
        "s"
      ],
      [
        "Mid",
        "dle"
      ],
      [
        "Say",
        "s"
      ],
      [
        "Inter",
        "net"
      ],
      [
        "Fred",
        "die"
      ],
      [
        "Tru",
        "mp"
      ],
      [
        "Ya",
        "hoo"
      ],
      [
        "gloom",
        "y"
      ],
      [
        "stud",
        "y"
      ],
      [
        "potent",
        "ial"
      ],
      [
        ".",
        "'"
      ],
      [
        ".",
        "-"
      ],
      [
        ".",
        ":"
      ],
      [
        "0",
        "1"
      ],
      [
        "0",
        "2"
      ],
      [
        "3",
        "5"
      ],
      [
        "3",
        "00"
      ],
      [
        "5",
        "2"
      ],
      [
        "6",
        "5"
      ],
      [
        "8",
        "3"
      ],
      [
        "8",
        "5"
      ],
      [
        "A",
        "R"
      ],
      [
        "A",
        "u"
      ],
      [
        "A",
        "ir"
      ],
      [
        "A",
        "IG"
      ],
      [
        "C",
        "ar"
      ],
      [
        "C",
        "ase"
      ],
      [
        "D",
        "I"
      ],
      [
        "D",
        "ata"
      ],
      [
        "F",
        "B"
      ],
      [
        "G",
        "reat"
      ],
      [
        "I",
        "S"
      ],
      [
        "J",
        "ers"
      ],
      [
        "M",
        "S"
      ],
      [
        "M",
        "c"
      ],
      [
        "M",
        "ex"
      ],
      [
        "M",
        "ak"
      ],
      [
        "N",
        "T"
      ],
      [
        "S",
        "p"
      ],
      [
        "S",
        "ur"
      ],
      [
        "W",
        "or"
      ],
      [
        "W",
        "ill"
      ],
      [
        "a",
        "v"
      ],
      [
        "b",
        "or"
      ],
      [
        "b",
        "at"
      ],
      [
        "c",
        "an"
      ],
      [
        "c",
        "rude"
      ],
      [
        "d",
        "r"
      ],
      [
        "d",
        "ou"
      ],
      [
        "e",
        "ase"
      ],
      [
        "f",
        "un"
      ],
      [
        "g",
        "r"
      ],
      [
        "g",
        "is"
      ],
      [
        "g",
        "ives"
      ],
      [
        "g",
        "ram"
      ],
      [
        "h",
        "ow"
      ],
      [
        "i",
        "k"
      ],
      [
        "i",
        "um"
      ],
      [
        "j",
        "it"
      ],
      [
        "n",
        "u"
      ],
      [
        "o",
        "ly"
      ],
      [
        "p",
        "ace"
      ],
      [
        "p",
        "ack"
      ],
      [
        "s",
        "en"
      ],
      [
        "s",
        "our"
      ],
      [
        "s",
        "na"
      ],
      [
        "s",
        "mart"
      ],
      [
        "t",
        "reasury"
      ],
      [
        "u",
        "ary"
      ],
      [
        "y",
        "en"
      ],
      [
        "y",
        "our"
      ],
      [
        "an",
        "y"
      ],
      [
        "ar",
        "i"
      ],
      [
        "or",
        "ies"
      ],
      [
        "es",
        "man"
      ],
      [
        "re",
        "ed"
      ],
      [
        "re",
        "cess"
      ],
      [
        "re",
        "tail"
      ],
      [
        "id",
        "ence"
      ],
      [
        "ic",
        "o"
      ],
      [
        "le",
        "vel"
      ],
      [
        "st",
        "eep"
      ],
      [
        "for",
        "c"
      ],
      [
        "for",
        "e"
      ],
      [
        "com",
        "plet"
      ],
      [
        "In",
        "s"
      ],
      [
        "In",
        "sur"
      ],
      [
        "Jo",
        "b"
      ],
      [
        "Re",
        "li"
      ],
      [
        "regulat",
        "ing"
      ],
      [
        "New",
        "ly"
      ],
      [
        "un",
        "it"
      ],
      [
        "se",
        "lls"
      ],
      [
        "ent",
        "s"
      ],
      [
        "im",
        "port"
      ],
      [
        "pro",
        "gram"
      ],
      [
        "Ch",
        "ancell"
      ],
      [
        "pr",
        "om"
      ],
      [
        "pr",
        "esident"
      ],
      [
        "bank",
        "ruptcies"
      ],
      [
        "ok",
        "esman"
      ],
      [
        "out",
        "lines"
      ],
      [
        "down",
        "turn"
      ],
      [
        "sh",
        "ow"
      ],
      [
        "li",
        "er"
      ],
      [
        "iz",
        "e"
      ],
      [
        "ha",
        "ul"
      ],
      [
        "ru",
        "le"
      ],
      [
        "Merg",
        "e"
      ],
      [
        "mo",
        "ving"
      ],
      [
        "wor",
        "st"
      ],
      [
        "over",
        "haul"
      ],
      [
        "sl",
        "ump"
      ],
      [
        "trad",
        "e"
      ],
      [
        "expect",
        "s"
      ],
      [
        "ak",
        "es"
      ],
      [
        "get",
        "s"
      ],
      [
        "rev",
        "ers"
      ],
      [
        "do",
        "z"
      ],
      [
        "if",
        "t"
      ],
      [
        "way",
        "s"
      ],
      [
        "ul",
        "us"
      ],
      [
        "Tech",
        "nology"
      ],
      [
        "pay",
        "out"
      ],
      [
        "ie",
        "ld"
      ],
      [
        "lead",
        "ers"
      ],
      [
        "ap",
        "ter"
      ],
      [
        "equ",
        "ities"
      ],
      [
        "cont",
        "ro"
      ],
      [
        "sp",
        "okesman"
      ],
      [
        "sign",
        "als"
      ],
      [
        "rele",
        "asing"
      ],
      [
        "med",
        "ical"
      ],
      [
        "caut",
        "ion"
      ],
      [
        "Dec",
        "line"
      ],
      [
        "Boo",
        "st"
      ],
      [
        "tough",
        "er"
      ],
      [
        "tight",
        "ening"
      ],
      [
        "volat",
        "ile"
      ],
      [
        "hand",
        "ful"
      ],
      [
        "concern",
        "ed"
      ],
      [
        "GSY",
        "NC"
      ],
      [
        "System",
        "s"
      ],
      [
        "writ",
        "es"
      ],
      [
        "coun",
        "try"
      ],
      [
        "High",
        "er"
      ],
      [
        "Ir",
        "an"
      ],
      [
        "engin",
        "eer"
      ],
      [
        "stim",
        "ulus"
      ],
      [
        "Rev",
        "iew"
      ],
      [
        "examin",
        "ing"
      ],
      [
        "mortg",
        "age"
      ],
      [
        "large",
        "ly"
      ],
      [
        "Bon",
        "ds"
      ],
      [
        "ri",
        "ed"
      ],
      [
        "telecom",
        "mun"
      ],
      [
        "conf",
        "idence"
      ],
      [
        "consu",
        "mer"
      ],
      [
        "collap",
        "se"
      ],
      [
        "Fin",
        "ance"
      ],
      [
        "Jan",
        "uary"
      ],
      [
        "Qu",
        "arter"
      ],
      [
        "Rus",
        "sia"
      ],
      [
        "bio",
        "tech"
      ],
      [
        "eu",
        "ro"
      ],
      [
        "rebo",
        "und"
      ],
      [
        "stra",
        "ight"
      ],
      [
        "effor",
        "ts"
      ],
      [
        "monop",
        "oly"
      ],
      [
        "Jers",
        "ey"
      ],
      [
        "Mex",
        "ico"
      ],
      [
        "recess",
        "ion"
      ],
      [
        "Chancell",
        "or"
      ],
      [
        "telecommun",
        "ications"
      ],
      [
        "'",
        ","
      ],
      [
        "2",
        "3"
      ],
      [
        "2",
        "4"
      ],
      [
        "2",
        "6"
      ],
      [
        "5",
        "5"
      ],
      [
        "8",
        "2"
      ],
      [
        "A",
        "ims"
      ],
      [
        "A",
        "ff"
      ],
      [
        "B",
        "ay"
      ],
      [
        "B",
        "ro"
      ],
      [
        "B",
        "IT"
      ],
      [
        "C",
        "ut"
      ],
      [
        "C",
        "har"
      ],
      [
        "D",
        "is"
      ],
      [
        "D",
        "ail"
      ],
      [
        "E",
        "A"
      ],
      [
        "E",
        "BIT"
      ],
      [
        "G",
        "o"
      ],
      [
        "H",
        "its"
      ],
      [
        "J",
        "eff"
      ],
      [
        "L",
        "ow"
      ],
      [
        "M",
        "e"
      ],
      [
        "N",
        "G"
      ],
      [
        "N",
        "N"
      ],
      [
        "N",
        "S"
      ],
      [
        "O",
        "N"
      ],
      [
        "P",
        "e"
      ],
      [
        "P",
        "l"
      ],
      [
        "P",
        "ad"
      ],
      [
        "P",
        "lay"
      ],
      [
        "P",
        "itch"
      ],
      [
        "P",
        "ari"
      ],
      [
        "S",
        "an"
      ],
      [
        "S",
        "il"
      ],
      [
        "S",
        "oft"
      ],
      [
        "U",
        "K"
      ],
      [
        "W",
        "al"
      ],
      [
        "b",
        "en"
      ],
      [
        "b",
        "ers"
      ],
      [
        "b",
        "ra"
      ],
      [
        "b",
        "reak"
      ],
      [
        "c",
        "i"
      ],
      [
        "c",
        "ast"
      ],
      [
        "d",
        "om"
      ],
      [
        "d",
        "ed"
      ],
      [
        "d",
        "ate"
      ],
      [
        "e",
        "l"
      ],
      [
        "e",
        "ver"
      ],
      [
        "e",
        "merging"
      ],
      [
        "e",
        "Bay"
      ],
      [
        "f",
        "l"
      ],
      [
        "f",
        "t"
      ],
      [
        "f",
        "ive"
      ],
      [
        "f",
        "ood"
      ],
      [
        "f",
        "ace"
      ],
      [
        "f",
        "lect"
      ],
      [
        "f",
        "ree"
      ],
      [
        "g",
        "rad"
      ],
      [
        "h",
        "o"
      ],
      [
        "h",
        "ip"
      ],
      [
        "h",
        "iring"
      ],
      [
        "i",
        "b"
      ],
      [
        "i",
        "ent"
      ],
      [
        "i",
        "Pad"
      ],
      [
        "j",
        "ect"
      ],
      [
        "k",
        "now"
      ],
      [
        "l",
        "f"
      ],
      [
        "l",
        "et"
      ],
      [
        "m",
        "s"
      ],
      [
        "m",
        "ical"
      ],
      [
        "n",
        "er"
      ],
      [
        "o",
        "to"
      ],
      [
        "o",
        "und"
      ],
      [
        "p",
        "ur"
      ],
      [
        "p",
        "ass"
      ],
      [
        "p",
        "ush"
      ],
      [
        "r",
        "un"
      ],
      [
        "s",
        "n"
      ],
      [
        "s",
        "up"
      ],
      [
        "s",
        "af"
      ],
      [
        "s",
        "we"
      ],
      [
        "s",
        "ol"
      ],
      [
        "s",
        "ecurities"
      ],
      [
        "t",
        "ers"
      ],
      [
        "u",
        "se"
      ],
      [
        "u",
        "fact"
      ],
      [
        "v",
        "al"
      ],
      [
        "w",
        "all"
      ],
      [
        "y",
        "ield"
      ],
      [
        "z",
        "one"
      ],
      [
        "an",
        "g"
      ],
      [
        "or",
        "t"
      ],
      [
        "al",
        "le"
      ],
      [
        "re",
        "al"
      ],
      [
        "re",
        "turn"
      ],
      [
        "re",
        "flect"
      ],
      [
        "the",
        "m"
      ],
      [
        "om",
        "ent"
      ],
      [
        "id",
        "ing"
      ],
      [
        "up",
        "date"
      ],
      [
        "lo",
        "st"
      ],
      [
        "and",
        "al"
      ],
      [
        "and",
        "ard"
      ],
      [
        "lat",
        "ive"
      ],
      [
        "ear",
        "lier"
      ],
      [
        "St",
        "ill"
      ],
      [
        "St",
        "ore"
      ],
      [
        "est",
        "im"
      ],
      [
        "off",
        "icial"
      ],
      [
        "ch",
        "airman"
      ],
      [
        "ter",
        "rit"
      ],
      [
        "il",
        "ed"
      ],
      [
        "se",
        "es"
      ],
      [
        "ke",
        "pt"
      ],
      [
        "App",
        "ro"
      ],
      [
        "Ch",
        "apter"
      ],
      [
        "str",
        "ugg"
      ],
      [
        "be",
        "gin"
      ],
      [
        "us",
        "ers"
      ],
      [
        "look",
        "s"
      ],
      [
        "Regulat",
        "e"
      ],
      [
        "unc",
        "es"
      ],
      [
        "de",
        "fault"
      ],
      [
        "cor",
        "re"
      ],
      [
        "po",
        "st"
      ],
      [
        "po",
        "ised"
      ],
      [
        "chan",
        "ged"
      ],
      [
        "man",
        "ufact"
      ],
      [
        "fall",
        "ing"
      ],
      [
        "ru",
        "m"
      ],
      [
        "wor",
        "ried"
      ],
      [
        "age",
        "ment"
      ],
      [
        "pect",
        "ive"
      ],
      [
        "Business",
        "man"
      ],
      [
        "int",
        "ed"
      ],
      [
        "incre",
        "ases"
      ],
      [
        "De",
        "ll"
      ],
      [
        "rais",
        "ed"
      ],
      [
        "ac",
        "ce"
      ],
      [
        "trad",
        "ed"
      ],
      [
        "fil",
        "ed"
      ],
      [
        "ep",
        "ing"
      ],
      [
        "am",
        "ong"
      ],
      [
        "Ph",
        "oto"
      ],
      [
        "gain",
        "ing"
      ],
      [
        "rev",
        "ised"
      ],
      [
        "Un",
        "der"
      ],
      [
        "cle",
        "ar"
      ],
      [
        "ud",
        "ge"
      ],
      [
        "Th",
        "an"
      ],
      [
        "work",
        "force"
      ],
      [
        "ash",
        "ing"
      ],
      [
        "Con",
        "su"
      ],
      [
        "top",
        "ic"
      ],
      [
        "sc",
        "andal"
      ],
      [
        "ric",
        "t"
      ],
      [
        "cus",
        "to"
      ],
      [
        "als",
        "o"
      ],
      [
        "Credit",
        "ors"
      ],
      [
        "Econom",
        "y"
      ],
      [
        "20",
        "15"
      ],
      [
        "fin",
        "ance"
      ],
      [
        "pen",
        "s"
      ],
      [
        "ne",
        "ed"
      ],
      [
        "appro",
        "ach"
      ],
      [
        "weak",
        "er"
      ],
      [
        "plun",
        "ged"
      ],
      [
        "bet",
        "ter"
      ],
      [
        "announce",
        "ment"
      ],
      [
        "riv",
        "als"
      ],
      [
        "Big",
        "gest"
      ],
      [
        "Big",
        "ger"
      ],
      [
        "under",
        "way"
      ],
      [
        "press",
        "ion"
      ],
      [
        "rele",
        "ases"
      ],
      [
        "An",
        "alysts"
      ],
      [
        "dis",
        "appoint"
      ],
      [
        "dis",
        "cuss"
      ],
      [
        "vers",
        "e"
      ],
      [
        "vers",
        "ial"
      ],
      [
        "meet",
        "ing"
      ],
      [
        "ag",
        "reed"
      ],
      [
        "Issu",
        "e"
      ],
      [
        "restruct",
        "ure"
      ],
      [
        "Bo",
        "ard"
      ],
      [
        "Vent",
        "ure"
      ],
      [
        "reco",
        "ver"
      ],
      [
        "Po",
        "sts"
      ],
      [
        "Rec",
        "ession"
      ],
      [
        "guide",
        "line"
      ],
      [
        "fac",
        "ing"
      ],
      [
        "slash",
        "es"
      ],
      [
        "retool",
        "ing"
      ],
      [
        "quest",
        "ions"
      ],
      [
        "join",
        "s"
      ],
      [
        "four",
        "th"
      ],
      [
        "giv",
        "ing"
      ],
      [
        "ph",
        "one"
      ],
      [
        "prev",
        "ious"
      ],
      [
        "evalu",
        "ating"
      ],
      [
        "Ar",
        "tic"
      ],
      [
        "BN",
        "P"
      ],
      [
        "Ger",
        "many"
      ],
      [
        "aver",
        "t"
      ],
      [
        "awa",
        "it"
      ],
      [
        "che",
        "mical"
      ],
      [
        "stitut",
        "ions"
      ],
      [
        "happ",
        "y"
      ],
      [
        "Dead",
        "line"
      ],
      [
        "negoti",
        "ating"
      ],
      [
        "Mak",
        "ers"
      ],
      [
        "jit",
        "ters"
      ],
      [
        "pack",
        "age"
      ],
      [
        "import",
        "ant"
      ],
      [
        "contro",
        "versial"
      ],
      [
        "engineer",
        "ing"
      ],
      [
        "Dail",
        "y"
      ],
      [
        "EBIT",
        "DA"
      ],
      [
        "Pari",
        "bas"
      ],
      [
        "Wal",
        "mart"
      ],
      [
        "swe",
        "eping"
      ],
      [
        "alle",
        "ged"
      ],
      [
        "territ",
        "ory"
      ],
      [
        "disappoint",
        "ing"
      ],
      [
        "&",
        "#"
      ],
      [
        "2",
        "bn"
      ],
      [
        "3",
        "3"
      ],
      [
        "4",
        "5"
      ],
      [
        "4",
        "bn"
      ],
      [
        "6",
        "0"
      ],
      [
        "6",
        "6"
      ],
      [
        "8",
        "7"
      ],
      [
        "9",
        "00"
      ],
      [
        "A",
        "l"
      ],
      [
        "A",
        "t"
      ],
      [
        "A",
        "sia"
      ],
      [
        "B",
        "U"
      ],
      [
        "B",
        "io"
      ],
      [
        "B",
        "reak"
      ],
      [
        "C",
        "S"
      ],
      [
        "C",
        "a"
      ],
      [
        "D",
        "ay"
      ],
      [
        "D",
        "own"
      ],
      [
        "E",
        "U"
      ],
      [
        "E",
        "mploy"
      ],
      [
        "E",
        "ES"
      ],
      [
        "E",
        "merging"
      ],
      [
        "F",
        "ire"
      ],
      [
        "G",
        "as"
      ],
      [
        "G",
        "ain"
      ],
      [
        "K",
        "ore"
      ],
      [
        "K",
        "eep"
      ],
      [
        "K",
        "raft"
      ],
      [
        "L",
        "ong"
      ],
      [
        "M",
        "B"
      ],
      [
        "M",
        "IT"
      ],
      [
        "N",
        "E"
      ],
      [
        "N",
        "et"
      ],
      [
        "O",
        "ver"
      ],
      [
        "P",
        "er"
      ],
      [
        "P",
        "et"
      ],
      [
        "P",
        "ol"
      ],
      [
        "R",
        "T"
      ],
      [
        "R",
        "et"
      ],
      [
        "S",
        "on"
      ],
      [
        "S",
        "ees"
      ],
      [
        "S",
        "CO"
      ],
      [
        "T",
        "wo"
      ],
      [
        "T",
        "wit"
      ],
      [
        "W",
        "ik"
      ],
      [
        "W",
        "ashing"
      ],
      [
        "a",
        "id"
      ],
      [
        "a",
        "ve"
      ],
      [
        "a",
        "ges"
      ],
      [
        "a",
        "void"
      ],
      [
        "b",
        "an"
      ],
      [
        "b",
        "in"
      ],
      [
        "b",
        "la"
      ],
      [
        "b",
        "ling"
      ],
      [
        "c",
        "li"
      ],
      [
        "c",
        "ash"
      ],
      [
        "d",
        "re"
      ],
      [
        "d",
        "ro"
      ],
      [
        "e",
        "ll"
      ],
      [
        "e",
        "merg"
      ],
      [
        "e",
        "asing"
      ],
      [
        "f",
        "und"
      ],
      [
        "g",
        "h"
      ],
      [
        "h",
        "or"
      ],
      [
        "h",
        "ere"
      ],
      [
        "h",
        "ore"
      ],
      [
        "h",
        "os"
      ],
      [
        "l",
        "u"
      ],
      [
        "l",
        "ending"
      ],
      [
        "m",
        "is"
      ],
      [
        "m",
        "ass"
      ],
      [
        "n",
        "ers"
      ],
      [
        "o",
        "la"
      ],
      [
        "p",
        "lay"
      ],
      [
        "r",
        "ight"
      ],
      [
        "r",
        "ift"
      ],
      [
        "s",
        "old"
      ],
      [
        "s",
        "pl"
      ],
      [
        "s",
        "ix"
      ],
      [
        "s",
        "kept"
      ],
      [
        "t",
        "ies"
      ],
      [
        "v",
        "ir"
      ],
      [
        "v",
        "ish"
      ],
      [
        "w",
        "ant"
      ],
      [
        "w",
        "ind"
      ],
      [
        "y",
        "s"
      ],
      [
        "y",
        "pe"
      ],
      [
        "z",
        "os"
      ],
      [
        "an",
        "ge"
      ],
      [
        "in",
        "s"
      ],
      [
        "in",
        "vent"
      ],
      [
        "er",
        "ence"
      ],
      [
        "ar",
        "en"
      ],
      [
        "es",
        "n"
      ],
      [
        "to",
        "ward"
      ],
      [
        "re",
        "duce"
      ],
      [
        "at",
        "t"
      ],
      [
        "at",
        "or"
      ],
      [
        "at",
        "ings"
      ],
      [
        "at",
        "ors"
      ],
      [
        "at",
        "ives"
      ],
      [
        "et",
        "a"
      ],
      [
        "et",
        "ition"
      ],
      [
        "en",
        "ter"
      ],
      [
        "en",
        "force"
      ],
      [
        "is",
        "ition"
      ],
      [
        "it",
        "e"
      ],
      [
        "it",
        "or"
      ],
      [
        "it",
        "ial"
      ],
      [
        "it",
        "se"
      ],
      [
        "up",
        "coming"
      ],
      [
        "ed",
        "ia"
      ],
      [
        "ic",
        "i"
      ],
      [
        "ic",
        "y"
      ],
      [
        "ic",
        "on"
      ],
      [
        "lo",
        "an"
      ],
      [
        "st",
        "e"
      ],
      [
        "st",
        "on"
      ],
      [
        "st",
        "ay"
      ],
      [
        "st",
        "ate"
      ],
      [
        "st",
        "orm"
      ],
      [
        "ut",
        "ion"
      ],
      [
        "lat",
        "er"
      ],
      [
        "for",
        "ecast"
      ],
      [
        "as",
        "y"
      ],
      [
        "as",
        "on"
      ],
      [
        "ec",
        "u"
      ],
      [
        "ur",
        "se"
      ],
      [
        "iv",
        "ision"
      ],
      [
        "iv",
        "atives"
      ],
      [
        "ear",
        "n"
      ],
      [
        "ear",
        "ing"
      ],
      [
        "ear",
        "ch"
      ],
      [
        "St",
        "eve"
      ],
      [
        "St",
        "ability"
      ],
      [
        "com",
        "modity"
      ],
      [
        "off",
        "er"
      ],
      [
        "har",
        "d"
      ],
      [
        "ers",
        "pective"
      ],
      [
        "In",
        "dustry"
      ],
      [
        "Re",
        "le"
      ],
      [
        "Re",
        "act"
      ],
      [
        "Re",
        "main"
      ],
      [
        "un",
        "g"
      ],
      [
        "un",
        "t"
      ],
      [
        "un",
        "changed"
      ],
      [
        "ad",
        "s"
      ],
      [
        "ad",
        "op"
      ],
      [
        "ad",
        "rift"
      ],
      [
        "por",
        "ation"
      ],
      [
        "lay",
        "ing"
      ],
      [
        "ma",
        "ster"
      ],
      [
        "offs",
        "hore"
      ],
      [
        "port",
        "fo"
      ],
      [
        "anc",
        "isco"
      ],
      [
        "go",
        "es"
      ],
      [
        "se",
        "en"
      ],
      [
        "im",
        "po"
      ],
      [
        "ver",
        "e"
      ],
      [
        "no",
        "v"
      ],
      [
        "no",
        "unces"
      ],
      [
        "bank",
        "ers"
      ],
      [
        "ex",
        "per"
      ],
      [
        "ex",
        "ecut"
      ],
      [
        "be",
        "li"
      ],
      [
        "co",
        "st"
      ],
      [
        "co",
        "de"
      ],
      [
        "co",
        "urse"
      ],
      [
        "say",
        "ing"
      ],
      [
        "ra",
        "ct"
      ],
      [
        "Ex",
        "pect"
      ],
      [
        "Ex",
        "changes"
      ],
      [
        "de",
        "b"
      ],
      [
        "sh",
        "ut"
      ],
      [
        "sh",
        "ale"
      ],
      [
        "strong",
        "er"
      ],
      [
        "li",
        "o"
      ],
      [
        "li",
        "ft"
      ],
      [
        "man",
        "agement"
      ],
      [
        "con",
        "s"
      ],
      [
        "iz",
        "ation"
      ],
      [
        "announc",
        "ing"
      ],
      [
        "Merg",
        "ers"
      ],
      [
        "Com",
        "cast"
      ],
      [
        "su",
        "re"
      ],
      [
        "En",
        "d"
      ],
      [
        "ant",
        "it"
      ],
      [
        "incre",
        "asing"
      ],
      [
        "der",
        "ivatives"
      ],
      [
        "De",
        "flation"
      ],
      [
        "Pr",
        "ice"
      ],
      [
        "fil",
        "es"
      ],
      [
        "major",
        "ity"
      ],
      [
        "Pay",
        "s"
      ],
      [
        "ep",
        "s"
      ],
      [
        "not",
        "ch"
      ],
      [
        "am",
        "s"
      ],
      [
        "pit",
        "als"
      ],
      [
        "week",
        "end"
      ],
      [
        "Fr",
        "ancisco"
      ],
      [
        "cut",
        "ting"
      ],
      [
        "ind",
        "le"
      ],
      [
        "res",
        "erve"
      ],
      [
        "res",
        "ol"
      ],
      [
        "economic",
        "s"
      ],
      [
        "set",
        "tle"
      ],
      [
        "ip",
        "edia"
      ],
      [
        "do",
        "or"
      ],
      [
        "do",
        "vish"
      ],
      [
        "clos",
        "ing"
      ],
      [
        "Mo",
        "de"
      ],
      [
        "Ris",
        "es"
      ],
      [
        "em",
        "ber"
      ],
      [
        "dec",
        "ade"
      ],
      [
        "Report",
        "s"
      ],
      [
        "issu",
        "ed"
      ],
      [
        "head",
        "ed"
      ],
      [
        "uncerta",
        "in"
      ],
      [
        "cent",
        "ral"
      ],
      [
        "card",
        "s"
      ],
      [
        "if",
        "ic"
      ],
      [
        "Cor",
        "poration"
      ],
      [
        "sid",
        "ers"
      ],
      [
        "wa",
        "iting"
      ],
      [
        "20",
        "14"
      ],
      [
        "fin",
        "ish"
      ],
      [
        "profit",
        "able"
      ],
      [
        "Canad",
        "ian"
      ],
      [
        "weak",
        "ening"
      ],
      [
        "pay",
        "ing"
      ],
      [
        "so",
        "on"
      ],
      [
        "Be",
        "zos"
      ],
      [
        "For",
        "ecast"
      ],
      [
        "drug",
        "maker"
      ],
      [
        "EP",
        "A"
      ],
      [
        "slam",
        "med"
      ],
      [
        "climb",
        "ed"
      ],
      [
        "posit",
        "e"
      ],
      [
        "Dec",
        "ember"
      ],
      [
        "br",
        "ing"
      ],
      [
        "200",
        "8"
      ],
      [
        "hal",
        "t"
      ],
      [
        "Get",
        "s"
      ],
      [
        "Get",
        "ting"
      ],
      [
        "Law",
        "yers"
      ],
      [
        "hand",
        "ling"
      ],
      [
        "risk",
        "y"
      ],
      [
        "au",
        "to"
      ],
      [
        "au",
        "thor"
      ],
      [
        "tent",
        "ion"
      ],
      [
        "quest",
        "ion"
      ],
      [
        "FINA",
        "L"
      ],
      [
        "sli",
        "p"
      ],
      [
        "bu",
        "ild"
      ],
      [
        "giv",
        "en"
      ],
      [
        "insur",
        "ance"
      ],
      [
        "acqu",
        "isition"
      ],
      [
        "Mot",
        "or"
      ],
      [
        "Mot",
        "ors"
      ],
      [
        "ior",
        "ity"
      ],
      [
        "lend",
        "er"
      ],
      [
        "lend",
        "ers"
      ],
      [
        "mid",
        "st"
      ],
      [
        "sing",
        "le"
      ],
      [
        "adv",
        "is"
      ],
      [
        "impos",
        "es"
      ],
      [
        "pros",
        "pect"
      ],
      [
        "90",
        "s"
      ],
      [
        "Gen",
        "eral"
      ],
      [
        "Med",
        "ic"
      ],
      [
        "Part",
        "ners"
      ],
      [
        "Sm",
        "all"
      ],
      [
        "dra",
        "g"
      ],
      [
        "elect",
        "ed"
      ],
      [
        "Invest",
        "ing"
      ],
      [
        "Invent",
        "ories"
      ],
      [
        "Air",
        "ways"
      ],
      [
        "MS",
        "FT"
      ],
      [
        "nu",
        "clear"
      ],
      [
        "sour",
        "ce"
      ],
      [
        "smart",
        "phone"
      ],
      [
        "Ins",
        "ight"
      ],
      [
        "Insur",
        "ance"
      ],
      [
        "revers",
        "al"
      ],
      [
        "euro",
        "zone"
      ],
      [
        "dom",
        "in"
      ],
      [
        "saf",
        "e"
      ],
      [
        "return",
        "s"
      ],
      [
        "reflect",
        "s"
      ],
      [
        "Appro",
        "ach"
      ],
      [
        "strugg",
        "ling"
      ],
      [
        "corre",
        "ction"
      ],
      [
        "rict",
        "ions"
      ],
      [
        "custo",
        "mers"
      ],
      [
        "pens",
        "ive"
      ],
      [
        "Ca",
        "pital"
      ],
      [
        "Kore",
        "a"
      ],
      [
        "Pol",
        "icy"
      ],
      [
        "Twit",
        "ter"
      ],
      [
        "Wik",
        "ipedia"
      ],
      [
        "Washing",
        "ton"
      ],
      [
        "emerg",
        "ence"
      ],
      [
        "hor",
        "izon"
      ],
      [
        "mass",
        "ive"
      ],
      [
        "skept",
        "ical"
      ],
      [
        "itse",
        "lf"
      ],
      [
        "portfo",
        "lio"
      ],
      [
        "impo",
        "se"
      ],
      [
        "execut",
        "ives"
      ],
      [
        "beli",
        "eve"
      ],
      [
        ",",
        "\""
      ],
      [
        "0",
        "5"
      ],
      [
        "3",
        "4"
      ],
      [
        "3",
        "8"
      ],
      [
        "4",
        "1"
      ],
      [
        "4",
        "7"
      ],
      [
        "5",
        "3"
      ],
      [
        "5",
        "bn"
      ],
      [
        "6",
        "2"
      ],
      [
        "6",
        "00"
      ],
      [
        "A",
        "no"
      ],
      [
        "A",
        "ss"
      ],
      [
        "A",
        "gain"
      ],
      [
        "A",
        "head"
      ],
      [
        "B",
        "S"
      ],
      [
        "B",
        "u"
      ],
      [
        "B",
        "it"
      ],
      [
        "B",
        "ill"
      ],
      [
        "B",
        "anc"
      ],
      [
        "B",
        "ack"
      ],
      [
        "C",
        "l"
      ],
      [
        "C",
        "r"
      ],
      [
        "C",
        "ent"
      ],
      [
        "C",
        "ong"
      ],
      [
        "C",
        "NN"
      ],
      [
        "D",
        "on"
      ],
      [
        "D",
        "ire"
      ],
      [
        "E",
        "T"
      ],
      [
        "E",
        "ar"
      ],
      [
        "E",
        "ve"
      ],
      [
        "E",
        "NA"
      ],
      [
        "E",
        "bo"
      ],
      [
        "E",
        "stim"
      ],
      [
        "E",
        "ls"
      ],
      [
        "E",
        "NT"
      ],
      [
        "F",
        "O"
      ],
      [
        "F",
        "e"
      ],
      [
        "F",
        "o"
      ],
      [
        "F",
        "oo"
      ],
      [
        "F",
        "ollow"
      ],
      [
        "G",
        "N"
      ],
      [
        "G",
        "over"
      ],
      [
        "G",
        "DI"
      ],
      [
        "H",
        "A"
      ],
      [
        "H",
        "ome"
      ],
      [
        "I",
        "mp"
      ],
      [
        "I",
        "NG"
      ],
      [
        "J",
        "udge"
      ],
      [
        "K",
        "indle"
      ],
      [
        "M",
        "em"
      ],
      [
        "M",
        "eta"
      ],
      [
        "N",
        "ER"
      ],
      [
        "O",
        "V"
      ],
      [
        "O",
        "c"
      ],
      [
        "O",
        "thers"
      ],
      [
        "P",
        "an"
      ],
      [
        "P",
        "erspective"
      ],
      [
        "Q",
        "4"
      ],
      [
        "R",
        "I"
      ],
      [
        "R",
        "est"
      ],
      [
        "R",
        "EA"
      ],
      [
        "R",
        "atings"
      ],
      [
        "S",
        "l"
      ],
      [
        "S",
        "w"
      ],
      [
        "S",
        "up"
      ],
      [
        "S",
        "ug"
      ],
      [
        "S",
        "ix"
      ],
      [
        "S",
        "ams"
      ],
      [
        "T",
        "er"
      ],
      [
        "T",
        "rack"
      ],
      [
        "T",
        "AR"
      ],
      [
        "U",
        "BS"
      ],
      [
        "W",
        "ork"
      ],
      [
        "X",
        "in"
      ],
      [
        "Y",
        "ell"
      ],
      [
        "a",
        "i"
      ],
      [
        "a",
        "im"
      ],
      [
        "a",
        "gen"
      ],
      [
        "b",
        "ec"
      ],
      [
        "b",
        "low"
      ],
      [
        "b",
        "ru"
      ],
      [
        "c",
        "al"
      ],
      [
        "c",
        "ed"
      ],
      [
        "c",
        "ies"
      ],
      [
        "c",
        "ant"
      ],
      [
        "c",
        "row"
      ],
      [
        "c",
        "rit"
      ],
      [
        "c",
        "cess"
      ],
      [
        "d",
        "id"
      ],
      [
        "d",
        "ark"
      ],
      [
        "d",
        "ig"
      ],
      [
        "d",
        "ive"
      ],
      [
        "d",
        "one"
      ],
      [
        "d",
        "iff"
      ],
      [
        "e",
        "line"
      ],
      [
        "f",
        "ic"
      ],
      [
        "f",
        "ra"
      ],
      [
        "f",
        "ired"
      ],
      [
        "g",
        "th"
      ],
      [
        "g",
        "ime"
      ],
      [
        "g",
        "reat"
      ],
      [
        "h",
        "ic"
      ],
      [
        "h",
        "ire"
      ],
      [
        "i",
        "Shares"
      ],
      [
        "i",
        "Report"
      ],
      [
        "i",
        "ally"
      ],
      [
        "j",
        "ugg"
      ],
      [
        "k",
        "ed"
      ],
      [
        "k",
        "ers"
      ],
      [
[...]
